ffe9
ffca
002d
0003
0055
ffb0
001a
0035
000e
ffd6
fff2
ffde
001a
ffed
002f
000f
ffda
0009
000d
ffea
ffe0
0016
001e
ffee
ffe3
fff2
0006
004a
0007
ffe3
0042
ffd5
0010
000a
ffd5
ffdc
fff8
0000
ffcb
ffea
ffe9
ffc8
ffcc
0015
ffed
fff2
0011
fff6
ffd5
0001
ffed
000d
0002
001e
0010
0004
0001
ffed
fff9
fff6
fffa
fff9
0004
ffe3
0007
fffa
0011
fff4
fff9
001b
ffe3
fffe
0003
ffff
fff7
ffe6
ffe8
000f
fff4
000a
000c
fffa
000c
0009
0001
fff6
0029
ffe4
0009
ffe6
000d
ffeb
fffe
001b
fff7
0038
fffb
ffef
0039
002d
0022
0008
0031
0008
0007
0007
fffa
fffd
fff7
ffe4
0005
fff7
ffd9
fff4
ffe5
0006
000e
000b
ffea
0012
000a
0002
000b
ffd5
ffeb
ffeb
0052
ffca
0005
ffd9
fff4
0004
0008
ffef
0000
001c
000d
fff1
0000
0005
0008
fff2
0009
ffe5
0024
0005
ffde
fffc
fff6
ff95
0041
fff1
fff3
ffcd
0033
0004
000a
fffe
0060
0014
fffa
ffcc
fff0
0019
ffe6
0009
ffe0
ffff
0006
fff8
ffce
0027
0000
fffa
fff9
0002
fffa
ffcb
ffff
0006
0011
0032
fff2
004c
ffe9
ffec
ffe6
0008
0007
000b
0054
002e
fff6
ffe3
001d
0016
0016
ffe3
0012
0008
000a
fffe
000a
000d
fff5
ffee
ffbf
000b
0012
ffed
000f
fffb
fff2
000d
ffff
fff9
fff2
000e
0041
ffdd
fffd
ffeb
fff7
0031
ffd4
ffeb
001a
000a
000c
0006
0008
0021
0018
ffad
002b
002b
000c
ffea
0004
fff6
fff2
0011
ffdc
ffed
ffd3
0028
0006
fff1
fffc
ffcd
ffd5
fff9
fff9
0005
ffe1
0024
0003
ffe0
ffc6
0013
ffef
0000
ffe3
0009
0036
ffbb
000d
fffc
002d
ffc3
0005
001c
000d
fff3
000f
0021
0011
0005
ffe9
0010
ffe3
fff7
001d
0005
ffc3
000f
0007
ffeb
ffcb
003d
ffe6
ffbf
0019
005a
ffd4
ffee
0007
ffe9
fff6
ffe4
0004
002b
fff1
0010
0002
0009
0018
000a
0014
ffe5
000d
ffcd
0005
fff8
ffea
fff2
ffcd
002e
000b
fffc
fff3
0002
ffba
000b
fff5
0000
fff5
001e
ffeb
ffcd
0010
fff3
ffe5
0045
fff6
0004
000a
ffe3
fffb
0007
fff3
0031
fff2
002e
0001
0047
ffcf
001c
001a
000d
0005
fffd
ffd8
fff7
0008
002e
ffed
ffed
0014
0045
000d
0007
0029
0013
fff3
fff0
ffcc
ffec
0006
ffd8
0023
ffef
0008
fffa
0024
fffc
fffc
0001
ffa3
001c
fff2
0032
001f
fffc
0069
ffe0
ffe6
fffa
0019
fff4
0007
fff0
ffc6
ffbc
0012
003d
ffb0
0045
fffc
0011
002a
fff1
fff8
ffea
003a
0010
fffd
0029
000f
0020
0015
ffc7
000b
0005
fff2
fff1
ffe0
001a
fff0
0005
ffe3
fff8
001b
ffdd
ffe4
003a
002e
000c
ffbb
0001
0005
fff6
ffc1
fff8
0003
ffe3
ffeb
001b
0034
0034
fffc
0001
000d
0011
fff3
000f
ffdd
ffee
ffef
ffef
0016
0014
001d
000c
ffed
0006
ffae
ffff
ffec
0044
fff5
0017
000e
001c
0003
001b
0028
ffe6
ffde
ffda
ffea
0001
fff2
fffc
ffcd
0004
0031
ffed
000c
fffc
004c
0019
fffc
0033
ffe4
ffd2
fffe
ffea
fff7
0011
fff2
0007
0008
fff4
ffc7
fffc
fff9
000a
001c
0006
fff7
fff4
000b
fff6
0008
fff3
002d
fffb
ffec
ffee
ffe1
0002
ffff
ffe9
ffea
ffd7
fffd
fffd
002c
ff90
0037
0018
0032
ffce
ffe9
000a
0008
ffe4
002a
fff9
0018
0019
0020
fff7
0008
fffc
ff9d
000d
ffff
ffdc
000b
fffc
0011
0038
0008
fff3
ffdc
ffb5
0004
0013
0000
0014
0008
0013
ffbe
0031
0002
000c
fff2
fff8
fff7
ffda
0020
0026
0026
0015
ffc5
fff0
001d
000f
fff9
ffda
0012
000f
ffcc
0007
ffdb
0004
fff4
ffe9
0024
fff5
ffe7
001b
fff3
002b
0021
000f
0011
ffec
ffe0
0003
ffd0
0025
0001
000a
fff1
ffeb
0020
ffff
fff8
fff1
000e
000e
ffda
002c
0005
001a
ffd6
fff1
fff4
ffe3
0012
ffee
001d
ffea
0007
ffff
0029
0001
0009
fff2
ffe8
ffd5
0005
ffe8
0018
000c
fff9
000a
0005
fff7
ffc0
ffea
001a
0008
ffcb
0016
fff5
0003
0002
0001
fffd
ffe9
0028
ffe0
0005
fffb
0033
ffe7
0028
ffec
fff9
0017
0019
001b
fff6
0009
ffdf
ffe0
ffdb
0021
0007
0025
000e
000d
0011
ffe9
ffc7
0007
ffd4
ffd8
0019
fffa
ffe5
ffd3
0013
ffd8
001a
fff0
0016
fff4
002e
002b
0004
ffec
ffee
ffea
0031
0016
ffd9
0015
0014
ffe3
0036
ffff
fffd
fffe
002e
0011
ffc3
002a
ffe3
001f
0002
fff9
0006
0023
fffc
000d
0012
000a
ffdc
003e
fff9
fff4
0012
fff0
002f
ffd3
0006
0022
0017
0014
0007
ffdd
ffc8
0003
fffd
0000
ffec
fff6
ffea
fff4
ffea
ffe2
fff7
ffef
0009
0004
0009
0001
fff5
ffe2
0011
ffe5
0017
ffdb
0016
002a
ffea
ffe5
000e
0038
fff2
0011
0004
0007
0000
fff4
ffcb
001b
ffcf
fffb
0037
fff3
0021
ffd2
fffb
0015
0015
0024
ffe5
ffd7
fffb
ffd1
000f
ffb3
fff0
000b
003c
0011
0007
ffbc
0003
0013
fff8
ffe4
ffcd
0003
ffd9
000a
0001
0005
ffe4
0015
000a
0007
fff2
fffc
000d
fff6
fff8
0025
fff9
001d
ffea
fff2
fffc
fff8
0015
0044
000b
ffdd
fffe
0006
001e
0001
fff7
fffd
004e
001b
001c
ffda
000d
ffec
001e
ffea
0026
0003
0016
ffe6
0004
0019
002e
ffda
0016
fff2
fff0
0003
000d
ffe8
fff0
0003
001b
0004
0015
0019
0002
0000
000f
0001
0018
ffd5
fff6
0000
002d
ffe9
0018
fff2
000b
0005
ffd9
000c
fff7
0006
000d
0019
fffe
0015
0032
000c
fffa
0002
ffff
ffde
ffe2
ffba
0020
0010
001e
ffed
001e
ffdd
ffef
ffea
0011
ffd3
ffe8
0035
fff1
ffe5
0002
fffd
0017
ffdc
ffcb
000d
fffd
fff4
ffee
ffe2
000f
0011
ffe9
fffe
0028
0027
0023
ffe5
001c
ffff
ffe5
000f
0005
000a
0006
0023
fffb
ffd4
0005
0001
000a
0010
ffed
0006
0002
ffef
ffff
ffe5
ffec
000d
fffa
ffd1
0026
001d
0022
001f
0004
ffe8
001d
0000
ffef
000f
0012
fff5
0008
000a
0007
0015
0009
fff6
fffe
003a
0011
0003
ffed
0004
ffd1
001f
fff4
fff2
001f
fff6
ffd0
ffec
0007
0040
ffff
ffed
ffff
ffc8
ffdc
0047
0005
000b
fffd
001f
0033
fffc
ffef
000c
fffb
0001
0005
0017
fff5
ffc3
0013
ffee
ffea
fffd
0021
ffec
ffd4
000d
ffdd
fff3
0045
ffdd
0012
0006
ffcd
ffe5
0045
fff1
0000
ffeb
fffd
0022
0025
001f
0003
0015
0013
0013
ffe9
ffe3
fff3
ffff
0019
ffdb
002f
fffb
ffe9
0009
ffde
ffe4
fff0
000a
0011
ffd7
001a
ffea
0002
ffea
0002
ffce
002e
ffcd
fff2
ffe7
ffd6
000d
ffea
001b
0021
0004
fffc
000d
001d
ffec
0055
fff2
0003
0012
0001
ffed
0027
fff5
fff5
000f
fff0
002b
000e
fff8
0008
001e
0004
ffd6
0008
001d
ffe7
0019
002a
000f
fff2
fff9
fff7
0030
0006
0016
003a
ffcc
003c
0018
ffe5
ffd3
ffe3
001a
0017
0016
0011
fff9
fff1
001a
ffe0
001e
ffff
0012
ffd7
fffb
0016
ffed
0007
ffe6
0003
001f
fff8
0028
ffe1
0011
ffde
fffe
fff8
ffeb
ffe0
fffb
0023
ffff
ffd4
ffdc
000f
fff9
0014
fff7
ffdf
ffef
ffe9
fff1
fff4
ffbd
001f
0009
fff9
fff7
000e
ffdd
fff7
000a
ffd9
ffeb
ffba
ffec
ffeb
fff4
ffef
000e
000e
0008
ffe1
ffee
002e
ffec
ffc4
0012
0055
fff0
fff8
ffda
0008
ffe6
fff6
ffe2
fff3
fff0
000d
fff5
ffec
fffa
001e
ffe0
fffd
0007
ffc5
0026
fff9
0019
fff7
ffea
ffe0
001a
ffdf
001b
0021
ffd9
0000
fffd
ffdf
ffd9
fff9
0005
fff7
0003
0004
fff6
0007
ffe5
0014
002d
001a
000c
ffdf
fff3
0012
ffb6
fff7
ffd0
001d
000b
ffb1
0021
ffe3
000e
fff9
0002
ffed
fffa
0027
0016
0010
ffed
ffe4
fff7
001e
fff4
fff1
0013
000f
ff9e
0034
0014
002e
001e
ffd4
0004
001f
000b
ffea
000d
0000
0015
001c
000a
ffe0
ffef
ffea
0014
0000
0009
fffb
0018
0048
ffd1
0012
0031
0003
ffe3
001d
fff3
0022
000e
0011
ffef
0005
0034
ffd6
ffce
0003
0032
fff7
000c
ffe5
ffeb
fff8
000d
ffea
ffef
001e
001a
