fffb
fff5
000f
0000
0014
0035
0020
0013
0000
0028
ffe5
fff0
ffe8
0011
0007
fff6
0011
000a
ffd8
fffd
fff9
ffcf
0007
fffe
0012
fffc
0007
0009
fff3
ffe1
fff6
ffff
0016
fff6
001e
ffba
000c
fffa
fffe
fffd
0000
0002
000a
ff71
ffe1
0020
0050
0005
000b
fffa
000c
000f
0033
fff7
0001
fff3
fffc
0006
0003
fff5
0007
ffce
0009
0014
fff7
ffef
ffec
000f
ffd1
ffe4
fffe
fff6
ffc6
0003
fffe
0000
fffb
001b
fffb
ffff
fffc
fffc
fffa
0000
ffc0
0000
0002
fffd
fff5
fffd
ffe7
fffc
ffff
0001
fffa
0009
0006
fff2
0006
fffa
ffe7
ffa6
0000
0010
0009
0046
fff7
0010
fff8
0009
000d
0000
000e
0000
fffa
ff5c
fffb
0000
fffd
ffff
0004
ffff
0011
0017
0017
fffc
0017
fffb
0003
0009
ff97
0010
0014
ff9f
0011
0024
fffe
fffd
fff6
0001
ffeb
ffe8
004e
0005
fffe
ffeb
001e
000b
0024
0034
000e
0019
000f
fffd
fffa
fff9
ffef
0006
ffe2
fff8
0002
000b
ffff
000d
0003
0009
0008
0006
fff8
fff1
fffd
ffec
fff9
0007
0000
0007
fff8
0016
0037
fffc
fffa
fff2
ffde
fff7
fffb
fff6
ffe0
0002
fffe
ffd1
0020
fffa
ffff
0014
ffd0
000b
0001
0012
0007
0000
fff9
fffc
0000
fff6
0000
ffc0
0016
0004
0005
0000
fff6
fff9
0002
ffff
000d
0009
0013
001f
ffdf
000a
fff2
0001
ffff
0012
0000
0005
000d
ffe7
0000
0007
0002
000f
0000
0023
0008
000d
0005
ffff
0015
ffe4
0000
fffe
0009
fffb
fff4
ffe9
0007
0023
ffff
fff5
0005
0008
0008
0006
0006
0007
fffc
0016
ffd2
fffd
000c
0003
0029
0005
0008
fffb
0000
0000
fffc
000b
0006
0005
001b
ffe5
ffe3
000f
ffe7
ffdd
0001
0038
000e
0013
0009
0001
0009
0000
fffd
0015
0005
0008
fffe
fffa
0012
ffe5
fffd
000a
fffa
fffb
fff5
0005
ffff
fffe
0000
0000
0002
0000
0009
0002
fff1
fffa
0001
fff3
fffd
0012
fff3
fff9
fff3
fffd
0004
0015
ffff
0000
0010
fffb
fffd
0009
0008
fffd
ffee
fffc
0005
0002
000d
0002
fffe
fff4
0000
ffec
ffff
ffde
ffff
0004
ffda
fff9
ffff
0005
0008
0026
fffe
000f
fffe
0004
0011
0007
ffd4
0002
ffef
0014
fff9
0007
0001
0009
ffe6
0004
0015
000d
0027
fff0
000a
0004
fffe
0028
001a
ffff
0006
fffe
fffa
0001
fff9
0002
0000
fffd
0012
fffd
ffeb
000f
0005
0010
0001
0002
0006
0005
fff3
fffb
fffd
fff5
0002
ffde
001c
ffef
0014
0006
fffe
000d
0022
0005
0019
0018
0003
0009
0018
0009
0006
fffd
0008
ffff
0007
001a
ffd0
0001
000a
fffc
fffa
0015
fff6
ffff
000c
0005
0010
0004
ffd9
0002
0001
ffea
003d
fffb
fffc
0002
0007
0019
0002
0000
ffef
ffdd
0006
fff3
ffff
0001
0000
0001
0003
000a
ffcd
ffb0
000f
fffe
0010
0003
0001
0017
0000
ffe6
ffec
000f
0007
0000
0000
001b
fff2
fffd
ffff
001b
000f
ffff
fffc
0002
fff7
0005
fff6
0023
fff9
fff6
0005
ff8e
0019
003c
ffdb
fffe
0001
0015
0005
0010
fff2
0000
000f
fffe
000a
fff9
0019
0007
fffd
fff7
fff5
0012
0015
0003
ffe7
ffe6
0002
001b
0000
ffff
fffe
ffe5
0000
ff82
ffe6
0004
000a
0026
0005
0000
0008
0006
0003
fffa
fff5
fff9
ffff
fffe
fff9
0006
0001
fffa
0001
fffe
000b
fff8
fff9
0004
fff1
000b
fff8
0012
0003
0002
fff9
ffe6
0003
0009
fff1
0013
0007
ffdf
fff7
0003
0009
fffd
000f
fffd
001c
ffe3
ffdf
0018
ffef
000b
0012
fffe
0002
0003
0002
0006
fff0
0003
0016
ffe3
0004
0028
000f
0006
fffa
0002
000a
ffe0
0003
fffc
0016
0011
001e
0003
0012
fff3
000c
000f
fffa
fff1
0000
0000
0006
fff1
fffc
0015
fffe
ffff
0005
001e
0009
fff4
000b
fffe
0009
ffee
001f
fffd
0009
0005
0005
0004
ffff
0002
ffeb
ffff
fffb
ffee
0001
fffe
ffa0
fffb
ffda
0000
ffff
0005
ff9a
fffe
fffd
0009
0013
0008
0001
ffff
ff89
ffe6
000c
001a
0005
fff4
003e
fffd
0013
0005
ffc5
000f
0008
fffb
0021
000c
001a
ffe8
0000
ffdc
fff5
fffc
fff6
0011
fffc
ffff
0000
fffc
0007
ffff
001e
000a
0000
fffc
000a
002d
000e
0000
fff8
0053
fff9
0002
0002
0001
0006
fff9
0012
ffeb
0006
0001
0002
000d
0008
001f
fffe
0009
0006
0021
0000
fff9
0001
ffec
0003
0001
fff1
fff8
001a
0006
fff2
0008
0004
fffe
0000
fffe
fff2
0010
fffd
0006
fff9
001e
ffff
000b
fff8
fffe
000d
0010
ffd9
0018
ffff
0006
fffc
0005
fffe
0012
0006
fff1
0000
0000
fffd
0005
fffb
fff9
0003
ffff
000d
fffb
ffd4
0004
0002
fff4
fff6
0002
fff5
0014
ffe3
fffd
0016
fffc
fffe
fff6
0006
ffff
001e
0006
ffff
ffff
0000
ffea
0011
002b
fff0
ffec
fff5
001f
fff7
000d
fff8
000d
fff9
0008
0016
fffa
0019
0027
0001
fffd
0006
ffb6
0015
0000
fff3
0009
0000
0005
fff9
0005
fff8
fffb
000d
ffff
0011
ffff
fffa
fff6
0000
fff6
000d
0000
fffe
ffef
0001
ffec
0003
fffc
fffa
0024
0006
0002
ffff
fff0
001b
fffc
0001
0010
ffff
002c
ffff
0000
fffc
0041
fffe
000b
000a
fff6
0010
ffe4
0005
fff8
0010
fff3
0000
0016
0015
0001
000f
fff0
fff9
0007
fff9
fffc
fffb
0001
0007
0013
0013
fff1
ffe6
0009
0003
0013
0004
fffd
000d
0005
fff5
fffa
0003
0002
0003
fffd
0004
0001
fff4
fffe
0004
ffdc
000b
0008
001e
fffe
000a
0007
0007
ffff
fffb
ffe4
0002
0007
0002
0001
000a
fff4
0002
fff4
0002
0001
ffba
0002
ffff
fff9
0001
ffe7
ffff
0000
0006
0002
0017
000e
000b
000b
ffeb
fffc
ffff
0007
fff6
0004
0012
000c
ffee
ffee
fffa
0000
fffc
0000
fffc
0001
0003
fff0
ffbb
0007
000f
fffd
fffc
0008
0015
0019
fff0
0007
fffd
fffc
fff9
fffb
0007
0000
fffd
fff0
fffd
000b
0009
fffc
fff3
0002
fff6
0022
ffff
fffc
fff8
0003
ffda
0006
001b
0000
0005
003f
fff3
fff9
0001
0015
ffe0
0003
fffe
fff7
0005
0001
ffff
ffff
ffd2
0002
0014
0000
fffb
fffb
0005
fffa
0006
0027
fffa
ffcd
000c
ffd9
0001
0021
fff3
001f
fffb
fffe
ffe1
0000
0005
ff26
0018
0000
0014
fff5
ffe4
fffa
0008
ffc5
0009
fffc
000a
ffe0
0016
0007
ffef
fff8
ffff
000d
0018
0005
ffff
ffff
ffcb
fffb
fff6
000a
0002
0001
0009
ffe9
0008
0002
000f
0014
0001
0010
0001
fff7
000b
0004
0002
0002
0004
fff0
fff8
0005
0002
000e
0022
0017
0001
fffe
ffdc
000a
0003
0000
0006
fefa
fff3
fffe
ffd7
000b
0004
ff8b
fff7
0001
0009
fffc
0012
fff4
0012
0007
fffe
0016
002e
fffc
001c
ff60
0021
000e
ffff
ffff
fff7
0005
0007
ffff
0000
ffd4
001b
0008
0003
fffa
0003
fff7
0005
0006
0000
ffff
000a
0002
ff93
fffe
0007
0008
ff88
001c
fffa
ffbb
ffe7
0003
0011
ffff
003f
0005
ffff
fff0
fffe
000b
002f
0004
ffec
fff7
0000
fffe
fffb
fffc
0009
ffff
0004
ff66
0002
fffb
0003
0016
ffff
0002
fff8
001e
fffa
fff9
0008
0006
001d
0001
0013
0017
ffd3
ffff
0009
000e
fff9
0003
fff5
0002
fffa
0012
0022
000a
fffc
ffd0
ffed
fffc
ffff
fff7
0007
fffb
ffff
0017
0004
fff6
001a
0002
fff6
fffc
fff6
001a
001b
0003
001a
0008
0016
0003
fffd
fffd
000f
0006
fff5
fff9
0013
ffff
0006
ffff
ffe9
ffb7
000c
0000
0003
ffed
ffff
0006
0013
fffe
0015
fffc
fffe
000a
0003
ffa7
0006
0008
0007
fffc
ffe4
fffd
0001
0007
ff88
0006
0002
000f
0000
0001
fffe
001e
fff7
0005
0000
0011
fffe
0013
0011
ffbe
fffe
0017
0011
0001
fffc
0003
0016
000a
0006
0019
0012
fff0
0011
fff1
fffe
ffff
0007
0005
0001
fff8
003e
0001
0005
0001
0001
fffb
ffff
0003
fffe
0018
0001
fff9
fff4
0001
0000
ffec
0024
ffc5
0000
0003
0001
fff8
0003
0003
ffea
0011
0005
fff0
ffe5
000d
fff4
000f
ffd8
ffe7
fffd
ffea
0003
0007
000b
0006
0006
000a
fffb
0014
000a
0008
000f
0006
0007
ffa9
000a
000c
ffe0
0003
0013
fffb
000c
001b
ffdd
0002
0006
0011
0017
ffb4
0000
0002
000f
0000
0002
0003
fff2
ff7e
0014
001c
0008
fff7
0000
0021
fff8
ffe8
0002
0014
001b
fffe
0001
0008
fff5
0005
fff7
001b
ffed
001a
ffe6
ffff
000e
fff7
0029
0016
0006
0016
0040
fffe
0004
fffd
fffe
0026
0002
0002
0005
fffa
0000
0015
0023
0001
0002
0002
0007
fffd
ffcd
0002
0003
fffc
0002
0021
000f
000a
0003
0004
ffe6
ff9b
0000
ffee
fff7
ffbd
fff1
fffc
0004
ffee
fff0
0004
0017
0004
fffa
ff73
0003
ffff
0004
0000
0013
0005
0000
fffe
0019
0028
ffff
ffef
0003
ffe3
ffbc
fffd
0010
ffa7
0002
001b
fffe
0004
ffff
0006
fffe
0008
0003
ffe9
0003
000c
0019
fffe
0045
ffd4
fff5
ffeb
0002
001c
ffe8
0004
0002
ffff
ffcc
0001
0002
fff8
0003
000c
fff8
000c
fffd
0003
0002
fff4
fff4
000f
0003
0005
fff5
fffd
0037
ffea
0012
0005
fff9
0013
fff4
ffff
0003
000c
0012
0001
0003
0016
0016
0003
0004
ffc1
ffd3
ffdd
0010
ffee
0014
fffa
0001
0004
0002
0001
0005
ffb5
fffe
fff8
0004
0001
000c
0003
0001
0003
ffef
fff8
fff5
ffe3
0000
000a
0007
0002
0003
0004
0006
ffd6
fff7
0000
0001
0005
0008
0005
fffe
ffde
0003
ffde
ffe9
fffb
ffd5
000a
0002
0005
0009
0008
ff7d
0019
000e
fff7
0001
000e
ffff
000f
fff6
000c
fffd
ffe1
0003
fff1
ff9f
002e
0025
0001
001b
fffd
0009
0002
0003
0003
fff2
ffe2
fff8
0011
0008
000a
000d
0020
0017
0015
0003
fff3
ffdd
ffed
002f
0003
0006
0006
0017
0016
0006
000d
0002
0000
fffd
0012
0001
0007
ffff
0002
0002
0007
0002
fff9
ffff
0006
0006
0004
0007
0005
0005
0004
ffff
fffd
0002
fff1
fffd
0003
fff5
0005
ffff
ffca
ffef
0002
000b
0001
0003
0007
ffff
fffd
fff5
0000
0000
0005
0006
0009
fffe
ffde
0002
0009
0003
ffc5
fffc
0004
0011
001b
0002
0013
0008
ffe6
fffd
ffff
fffe
0003
ffe6
fff8
000a
0003
0004
fffb
0002
fff9
0001
0005
ffc3
0004
ffed
fff8
0001
0007
0008
0014
0005
ffea
001b
0003
001b
001f
0003
0002
ffd8
0002
0002
0013
0005
0009
001f
fff6
0004
fffe
fff8
000d
ffff
0004
000c
0001
0004
0027
fffd
001c
fff4
000c
000f
ffff
0006
ffed
0041
0017
fff3
0011
0004
fffc
000f
fff8
0003
fffd
fffb
0007
fffc
0006
0027
0001
fff6
0002
fff6
0000
001b
0002
ffff
fffa
0008
000e
ff8c
0007
0000
001a
ffee
fff6
0008
0003
0012
003f
0000
0004
0006
ffff
0005
fff6
ffef
0002
0002
0002
0004
0008
0019
ffa8
ffea
fff9
000b
ffaa
0002
ffed
0011
0009
0007
fff6
000e
0002
0006
fff9
0021
fff0
0002
ffeb
fffc
0003
0008
0002
001b
0016
0003
ffe2
001d
fff4
0014
ff94
fff7
ffae
0010
0002
0000
ffff
0002
fff1
0018
ffff
fff3
0000
fff4
0011
fff6
fff7
0004
0005
ffe7
fff3
0004
0017
000e
fff7
0002
ffdf
ffff
0007
0003
ffe6
0003
ffaf
001d
0012
fff4
fff9
0001
0012
000e
0004
0002
000b
0008
ffdd
fff9
0004
fffd
0006
0003
0001
0003
ffff
fff0
0003
0020
0002
fff6
fff9
ffff
ffc7
0002
fffb
fffe
0012
0001
ffe6
002e
fff7
0002
0022
0012
0003
fffa
0000
fff3
0003
ffef
000c
000c
fffc
0008
ffee
ffe6
0006
0004
000b
0003
fff8
fffb
ffff
004d
000f
fff2
fffb
fff2
0001
0004
0000
fffe
0016
fff9
000d
002d
0004
ffe4
0006
ffe1
0001
0027
ffe6
0006
0026
0001
fff6
000e
0005
000f
003a
0002
0007
fffd
0019
fff4
0016
fffe
003e
000c
0006
fff8
0004
ffff
000a
ffff
ffd4
0003
fffa
0016
0001
0002
0001
0005
0001
ff94
0005
0010
0006
0002
0001
ff9c
0003
ffec
000b
ffe7
0003
fffe
ffeb
ff9c
000b
fff6
001e
0002
0002
ffdc
0000
ffe4
ffff
ffa3
0000
0000
0003
0003
fff4
0001
000a
fffa
001c
fff9
0005
0011
ffe5
0001
fffd
0002
0004
ffe8
0005
fffe
ffe3
0001
0005
0000
ffe3
fffe
0020
0000
000e
fff7
0002
fffd
fffe
fff9
0009
0017
0013
fffd
0000
0001
fffa
fffd
fff5
0003
0006
0008
ffe3
0004
0002
fff0
001e
0002
0001
000e
0003
ffee
fff6
000f
0000
0000
ffff
0012
0016
000a
000a
0004
0009
fffb
0016
0002
ffe8
0005
fff5
ffef
0007
000a
fffa
0005
000a
0002
0009
0006
fff5
ffe3
0064
0027
0002
0025
0001
0000
0003
fff5
0007
0012
0006
ffc7
0003
000d
0002
ffe0
0002
001f
000d
0015
0000
ffef
0002
0003
0005
000c
0004
ffe3
ffd6
fffc
0004
ffff
000f
000a
ffdd
ffc2
ffad
0006
ffe4
0007
fff0
0001
ffee
0020
fffd
fffa
000f
ffed
0034
0003
0004
0034
ffce
fffb
fffd
0003
fff7
000b
0008
fffe
0004
0006
ffff
fff8
fffc
0000
0002
0000
0004
0009
0011
ffff
ffff
fff4
0009
0000
0025
0002
ffe1
0001
0020
0027
0006
0005
000b
ffff
0001
000e
001e
0004
ffbc
0026
0006
0002
fff2
0000
000f
fffd
0001
ffeb
0010
0002
0003
fff1
0001
0000
fffb
fff0
0002
0007
0003
0021
0003
0001
0001
000b
0003
0003
ffe6
0032
0004
fffe
fff4
0004
ffe7
ffff
000a
fffb
000b
0009
fffc
0003
000c
fffc
0002
fffc
0003
ffdf
0004
0010
ffbf
0003
0009
000d
0002
fff7
0009
fffc
0000
0003
000c
0002
fff5
0000
ffff
0001
0005
000e
000a
0007
0000
ffaa
0001
0000
0003
0016
000d
0006
0001
0002
fff9
fff1
ffff
0000
000c
fff3
0004
0003
ffe9
0011
ffe6
ffef
000e
000c
ffd1
0003
0002
ffd4
ffff
0004
0004
0004
000f
ffbc
0005
ffff
0003
000a
0009
0024
ffdc
fff0
fff9
0004
0002
fffe
0006
fffd
0000
ffff
fff3
0004
0004
fff4
0000
0002
0000
0014
ffda
0004
0003
0008
0003
000e
0024
ffec
0005
000a
ffce
0035
fffb
0000
fff7
0007
fffa
ffff
ffee
000e
fffe
0004
fffd
fff2
0001
fffa
0004
000b
0000
000c
0005
fffc
0030
0007
ffe7
0005
ffc5
0002
000c
ffd2
0012
0007
fffa
0007
0000
0002
ff83
ffd3
0004
ffe2
0003
ff86
0009
ffff
ffa1
0002
0000
fffb
0014
0002
0005
0030
0006
0010
0002
fff4
fff9
ffff
0001
ffaf
fff9
0031
fffb
ffff
0004
ffcd
0008
0006
000d
000a
fff8
0003
fffe
0003
ffcf
0022
0004
fffd
0002
0010
000a
0001
fff8
0001
fff4
ffe7
ffe4
fffe
0004
fff7
fff9
0013
fff4
fffc
ff2f
0013
0003
000a
0006
ffff
ffc2
000f
fffb
0004
0005
fffb
000a
fffb
fffc
0005
ffea
fff8
000a
ffee
ffbf
ffe9
0007
fffd
0003
ffc0
0009
000a
0002
0002
ffea
0004
0010
0003
000a
0006
0004
000c
fffd
0020
fffe
0021
fffb
ffbf
0002
ffff
0003
ffb2
000c
0001
ffb4
0014
ffff
fffc
fff2
ffcc
fffe
ffff
0006
0016
0020
fff3
000d
002d
0007
0004
0001
0007
0000
fffb
000a
0006
ff93
0010
fff4
ffff
ffee
fffe
fffe
fffe
ffbe
0005
0003
0004
0022
ffeb
0005
ffee
ffe7
ffbb
0003
fffb
fff2
001c
0001
0003
0000
0011
0009
fff2
0009
0003
ff99
0004
0003
0002
0003
0000
0004
0001
fff8
0001
fffb
001b
0005
0014
fff5
0009
fff0
0005
0007
0003
fff9
ffec
0010
0002
fffa
0003
0006
0011
ffeb
ffec
fff5
0001
0003
fff4
ffa4
fffe
0004
ffff
000d
0001
fffe
0003
000e
fffb
0004
0003
fffc
ffea
ffd7
ffec
0002
fff7
0021
0016
fffb
fffc
ffe2
ff47
000b
001e
fff1
000e
0002
0005
ffea
0003
fff9
fff4
fff2
0005
fffb
fff0
ffa4
000f
fff0
ffeb
0000
0001
000b
fffd
0028
fffa
ffd8
ffff
ffe6
fff9
0009
0004
0011
ffff
fff4
fff7
0009
0009
ffff
0023
000d
0006
ffc8
0002
ffff
ffee
fffe
0003
0000
0005
0008
0005
0012
fff8
ffbc
0002
0003
0001
0013
0004
fffd
000b
ffdd
ffff
0005
ffd6
0001
ffe5
0014
0027
ffd6
0013
ffde
0002
001f
0000
0002
ffff
0005
0005
ffe7
000b
ffff
fffa
0004
0000
0011
0004
0015
ffd9
0005
0000
0025
fffa
fffc
0007
0002
ffed
0001
001f
ffed
fffe
fffd
fff9
fffe
0001
ffdf
0032
000e
0003
0025
0019
0000
fff8
0006
fffd
ffff
ffaa
ffcd
0001
fffd
ffff
0002
fffb
0001
fff8
ffff
000b
ffd1
ffdb
fff9
fffd
ffe5
0007
fffc
0002
ffda
ffff
fff5
0003
fffb
ffff
0001
0000
ffff
ffe1
fff8
fffe
0037
0004
0001
0000
0001
0007
0007
0015
ffff
0002
0001
ffff
001c
fffd
fffe
0003
0002
002d
ffea
fffe
ffe5
000a
ffbb
0002
0007
0000
0009
0003
0001
0025
0000
fffd
0003
ffff
0000
ffff
fffe
0018
0001
ffec
0013
fffb
ffdb
ffe7
fff2
0000
0007
0025
000e
000c
ffef
0007
0024
fffe
0001
fffc
0002
000d
fffc
ffe7
fffc
0000
fffd
001c
fffa
ffc7
0015
ffd6
0001
0000
0003
0015
0002
fffd
ffcd
0004
fffe
0000
ffe4
0000
0004
0005
fffb
fff8
0002
fffd
fffb
fffb
fff9
fffb
ffdf
fffd
000e
fff0
ffed
ffdd
0001
0018
fff4
fff6
fff3
002a
fffc
0001
0000
0000
ffff
ffd7
ffff
0004
003c
0021
ffd9
0012
fffb
0017
0000
fffe
0000
0001
fffe
0000
ffe3
0000
0017
0008
ffff
0000
fffc
0000
ffff
ffe7
fffc
fff5
000e
fff6
0009
0000
0000
0003
fff9
0002
0019
0002
fffc
0001
0002
0007
fff9
fffe
0013
0003
ffef
fff0
0003
000e
fffe
0003
0005
0008
0001
0024
0012
000b
0019
ffff
ffda
fffc
ffff
0001
ffff
0002
0017
fffe
ffd4
0005
fff2
001c
0002
0010
fff3
fffa
0004
0000
0000
000c
0006
0001
0004
fff7
fffe
0001
ffd8
fff8
fffb
0001
ffa7
0012
0023
ffef
0000
fff9
0000
fffb
ffdc
0001
0016
fffe
ffed
0004
fffc
fffe
0003
fffc
0000
fffe
0001
ffff
0002
ffff
0005
0002
0002
0002
0001
fffd
0000
0001
fff5
ffff
fffc
fffb
0000
fffe
0001
ffff
000b
000b
fffe
001f
fffe
0001
ffd6
0011
0000
0002
fffa
fffc
0001
0003
fff8
ffff
0026
0001
fffe
0001
ffe7
001b
fff1
fffd
fff5
0001
0008
0002
ffc2
0005
ffdf
0003
0002
0013
0002
0017
0000
fffd
000c
ffff
fffa
0005
0008
0013
fffd
0009
001f
0027
fffe
0011
0003
0000
000f
001c
0002
0000
0002
fffe
fff7
ffff
0007
0000
0000
000d
ffe2
000d
0017
fffd
ff9b
0001
0003
0001
ffca
ffff
0008
0003
0017
ffeb
ffff
000f
fffd
fffe
0005
0001
fff9
0003
fffc
0008
fffd
fffe
0000
0002
ffff
0023
fffe
fffe
fff5
0005
000e
000c
0000
0000
0000
000c
0019
fff9
0005
fff1
ffff
ffeb
fffa
0047
0002
fff9
0003
ffc5
0027
0001
0000
ffe2
0000
0001
0000
fffe
ffa0
ffff
0015
0013
0001
fffb
0000
fffd
ffea
0003
0000
000c
0006
fff1
ffdf
0002
0009
fff6
fffc
0002
ffeb
ffe6
fffc
fff7
001f
0015
fffc
ffff
ffc9
fff5
0001
0003
0001
fff2
0036
fffe
ffd5
0012
ffff
ffe8
000b
000d
003f
ffff
0009
0000
fff4
0000
ffdb
0010
ffff
ffe3
fffb
0004
ffe2
ffea
0017
0000
fffd
0006
0009
000d
0010
fff8
0004
0002
ffdb
fffd
0008
0000
0030
0001
fff0
0014
001b
ffde
0002
0004
ffff
000d
ffdf
fff6
ffff
0000
0007
ffff
0000
0003
0017
0001
0001
0002
0000
ffdb
0001
000c
0008
fff7
000a
0014
002e
0007
0004
002d
fff2
0001
fffe
fff9
0008
ffff
0001
0031
0002
fffa
fffd
ffd3
0000
ffff
ffec
fffc
0008
0002
fffd
0006
0001
fffc
0003
0002
0000
0009
0000
0020
ffff
ffff
0031
fff1
fff0
0002
ffff
0003
ffff
0005
000e
ffd7
0005
fffa
fff4
ffc9
fffd
fff0
000e
0001
0006
fffa
000a
fff8
0000
0001
ffb8
ffff
ffff
0001
ffeb
0000
0004
fffe
0044
0001
fffc
ffb9
fffe
ffee
fffd
ffff
0019
0002
0000
0014
0000
fffd
0018
000c
fffe
fff8
0003
fffd
0001
fffc
fffb
ffea
0000
fffd
0002
000d
0009
0000
0018
0012
fffd
0001
0026
0001
fffd
ffd9
fffe
0004
0002
ffd9
000a
fff6
0000
000c
fff3
ffc0
fffd
0000
0013
000b
fffe
ffff
001f
ffff
fffe
0001
0001
fffa
0001
ffc4
ffff
fffc
0000
fffb
0012
0001
fff9
0000
ff85
0016
0000
0001
000e
fffb
fffd
ffe6
fff6
ffff
0000
0001
fff1
ffff
0007
ffff
000a
fffe
0022
0000
fffd
000b
ffef
ffff
0000
fffe
fffe
0016
fffa
0004
ffcf
0000
fffc
fff8
0014
0003
0003
0001
0002
0002
ffcd
fffd
ffff
0002
000d
fffb
0003
fffc
0015
0002
0003
0001
ffff
0001
0003
000d
0003
ffee
0001
0009
fffd
fffa
0001
0002
fff0
fff1
0002
000a
0004
ffe4
0013
0010
0002
0002
0044
0001
fffe
fff7
0000
0000
ffff
fff4
0001
000c
0014
fffc
0001
0008
fffb
ffdf
ffd8
001e
0028
fffa
000d
0000
ffed
0008
ffe8
fff4
000d
ffec
ffee
ffce
0009
0002
0001
ffe2
0027
ffee
0000
fffb
fffc
0004
ffeb
fffa
ffff
0004
fffe
0001
ffff
0006
fffd
fffd
0004
0002
fffd
0002
0000
fffa
ffe0
0002
0001
0002
0021
fffe
ffce
fff7
0005
fffd
0000
000d
fffa
0002
001a
0001
002a
0024
fffd
ffff
ffe7
0000
ffec
fffb
fffc
0015
fffb
0001
0001
fff5
fffe
0001
ffe1
0001
0000
fffe
fffd
ffff
000d
0000
fffd
0003
0001
000f
ffd4
fffc
fffd
0021
002c
0003
ffe3
0001
000a
fff7
0003
0000
fff6
0001
fffd
0002
fffe
ffde
0000
ffbc
0000
ffee
ffe0
fffb
fff7
000c
0001
001d
0016
ffe4
fffb
fff6
0000
0003
fffe
0003
fffe
ffee
fffb
0000
0001
0002
ffff
0010
0003
fffb
0002
ffde
fffa
0001
fff7
0004
ffef
fffd
ffcb
fffd
0001
fff4
0000
0000
fffc
fffc
0027
ffdd
002b
0000
fff8
0004
0002
000c
ffe2
0003
ffff
0001
fff7
ffde
fffe
fffe
0005
0001
0000
0028
002f
0016
0008
0000
0000
0003
000e
000c
0003
ffc8
0006
0000
0004
000b
fffe
fffd
0000
ffff
fffd
0003
0000
0001
0008
fffc
fff9
ffbb
0001
0003
0007
ffbe
0009
0000
0015
ffe7
0002
fffe
ffe4
000f
0001
0001
0000
000c
0003
0006
0005
0000
fffe
ffeb
0008
fffe
0039
fffe
0000
0008
0013
0002
ffd4
0007
fffd
fffc
ffe9
0034
0001
0005
0010
000d
0000
0001
fffe
fffe
ffff
fffe
0027
0002
fffd
0002
fffb
0010
fffa
ffb8
0000
fffc
0010
ffd2
0003
0001
0001
ffe9
fffa
0001
fff5
0000
0001
001c
ffff
fff8
ffcd
0002
0013
0001
0028
0001
0010
000b
fffa
0002
ffff
0004
0002
0008
ffff
0000
0013
0015
ffec
ffe0
0001
fffa
fffb
fffe
0004
fffe
001d
0000
0003
ffff
fffc
fff9
ffcd
ffef
fffc
fffe
fffc
0034
fffe
0007
0002
0001
0002
0009
0001
000b
0020
fffd
ffe8
fffe
0001
001b
fffa
fff8
0000
0000
0013
0004
ffdf
0007
0002
0001
0000
0001
0003
001d
fff5
ffe6
fffd
ffe1
0001
ffff
0002
fff7
ffe6
fffd
0012
0002
fffe
ffdf
0014
fff1
0003
fffc
0001
ffeb
ffeb
0044
0001
ffac
0001
0000
fffd
0011
fffe
0001
fff6
0001
0003
0002
fffc
0001
fffd
0001
0002
000e
ffe9
fffe
0001
ffef
0012
ffdb
0001
0002
0030
0024
0000
0004
0010
ffff
0003
ffff
0000
0016
0004
001f
0001
0000
0007
ffc3
ffcb
0000
0005
fff6
ffff
0000
ffd6
ffff
ffef
0011
0006
ffe8
000c
ffff
ffc1
ffd4
0017
ffe4
fffc
0005
0001
fffe
ffc2
0002
0037
0001
001a
ffe8
000d
0008
ffff
0010
fffb
0002
ffff
0002
fffd
0000
fff1
0003
fffb
0005
0000
0000
ffd9
0010
fff1
000d
000e
fff7
fff9
0000
0002
fff3
fff6
000c
fffe
ffe7
0008
fff8
fffb
0000
ffce
fffd
000c
0005
fff7
fffe
000e
0038
0010
0002
0002
0026
0000
fffd
fff8
0003
ffe8
0001
0002
fff4
0019
fffb
fffe
0000
ffff
fffc
0007
000d
fffb
002f
ffff
ffe8
0000
0000
0021
0001
0003
ffdf
ffff
ffff
ffff
fffd
0001
0000
000c
ffe8
0009
0001
0003
0000
ffe3
0000
0000
fffc
0013
ffff
fffe
0005
001e
fffa
0004
0002
fff4
0010
0028
0001
ffbd
0003
ffff
0005
ffe3
fff6
ffe0
ffd8
ffff
000f
ffef
0005
001a
0008
000c
001a
0000
fff5
ffd7
0011
000e
ffea
0002
fffd
fffa
002b
fff0
ffff
fffb
0001
0000
0001
fff9
ffff
0023
0006
ffeb
ff69
0004
0023
ffd2
0003
fff7
ffc0
fff3
0016
001a
ffff
0001
0002
0004
fff9
0017
fffb
ffdd
0004
0011
ffee
0005
ffff
000d
fffb
ffe3
0021
ffe2
0001
0006
0000
ffff
0000
ffff
0016
fff3
0001
0018
0005
0002
ffff
0002
fff9
ffef
fffc
0001
0002
0000
0003
fff5
0007
0000
0005
0001
ffd0
0008
0000
0014
0007
0045
0005
fff0
0002
fff8
0006
fffb
0004
ffff
0001
001b
0000
0000
fffe
0000
ffe7
0000
0007
0000
0043
0020
001b
ffe1
ffff
ffe9
ffd0
fffb
fff2
fff8
0000
0012
fffe
0001
0003
0003
0017
0005
ffd3
0005
ffff
0007
0023
ffe7
ffce
000b
fff1
ffec
000c
0015
0010
0004
0002
ffe6
0004
0000
0000
ffe2
0000
0003
0003
0001
000e
0009
0001
ffdf
0008
000f
0003
0025
fff2
fff6
ffda
0028
ffee
0001
fff4
ffd9
ffe2
0014
0012
0013
fff2
fffd
0002
0011
ffe6
ffff
0002
0025
fff2
001a
fff1
0030
ffed
fff5
0000
0001
0000
0006
0002
ffdc
0016
0000
ffff
0000
0004
0000
0001
0000
0017
0013
fffb
fff9
0035
fff4
0007
0003
0003
fff3
fffe
0012
ffdc
000c
ffff
fffc
fffe
fff5
0001
fff7
0004
0032
0004
fffe
0005
0009
0000
fff6
fffa
fffe
ffc2
fff5
fff9
0009
0000
fffa
0005
fffe
ffeb
0001
0004
000b
0000
fff9
0022
002e
ffed
0002
fff9
000b
0007
ffe5
0000
0002
fff8
fff0
0004
0009
000a
0005
0000
ffda
0010
000f
fffe
ffd2
0007
ffef
ffee
0000
fffd
0003
0008
000e
0003
ffe8
0002
0003
0006
000c
0010
0002
0009
fffd
0001
0008
ffff
0001
0000
0001
0002
ffff
0004
0002
0005
0001
ffff
fff7
ffff
0006
ffe0
ffff
0008
0003
0000
003e
001a
fffc
ffdb
0001
0000
0015
ffe2
ffff
0000
0001
fffe
0004
ffeb
0000
0001
0001
ffff
0009
0000
0045
fff4
ffff
000f
0006
0001
0002
0008
ffef
0004
0003
ffdc
0004
fffd
0002
0018
0001
0004
0008
0003
ffea
0001
0008
fff2
000b
000a
fff1
ffce
0004
ffcd
ffdb
0001
fff1
ffc1
0001
0019
fff4
0000
0008
fff5
0000
0001
0003
ffff
000b
0022
0013
fffe
ffdd
0001
fffe
0002
ffec
000c
fff1
fffa
0011
ffea
0013
fff4
ffee
fffd
fffe
0000
0002
ffb5
0005
000c
0010
ffff
000b
000d
000e
ffdd
fffa
fff5
fff2
0001
0008
001b
fffe
000a
0000
ffe9
ffb1
000e
0004
fffc
0001
000e
fffc
fff7
0004
001c
0003
ffdb
0031
0005
0004
ffeb
0046
fffd
0000
0004
0020
0008
ffec
0003
0002
0002
0001
0005
ffcd
000e
0010
fffc
ffff
000d
ffed
0002
ffee
fff5
0006
000b
0007
ffb8
0005
ffdc
fff0
002a
fff2
ffff
ffee
fffe
ffff
fff9
ffff
fffd
ffe1
0002
002e
000d
0000
ffef
fffd
000b
ffdd
000a
fff2
0000
0018
fffe
0030
ffe2
fffd
ffe7
fffe
0004
ffd6
ffe5
ffe2
0000
0004
0020
0020
ffd1
0010
ffff
fff8
fffd
0037
0001
0004
0002
ffe6
fffe
001f
001b
0007
0009
ffef
fff3
0000
ffdd
fff0
0003
0004
0003
0003
001b
ffff
000b
fff8
0005
fffb
ffff
0003
001b
0007
ffeb
ffee
001e
0005
000c
0015
0002
0001
0009
fff6
0000
fff4
ffd7
fff1
fff3
001d
001e
0001
0005
0002
ffe4
0000
000c
ffff
0010
ffea
0001
ffea
ffee
0001
ffff
fff6
0002
0000
0006
fffb
ffbe
0008
0013
ffdd
fff5
fffa
ffff
0009
fffe
000b
fff8
0014
ffd7
0007
001e
fff3
0002
0006
fffe
fffc
0000
0003
fffd
fff4
ffff
0003
0008
0029
0000
fffe
fff9
ffe2
0000
0015
0009
000a
000b
0003
ffdb
0004
0008
0006
0001
0010
0000
0002
001d
0001
0001
fff6
fff8
0003
0005
0001
000c
0000
ffff
fffd
ffc1
ffff
fffe
0000
0016
fffe
0000
0004
ffde
0008
0012
0020
0002
0003
ffda
0001
fff9
000a
ffb3
0000
fff2
0001
ffd4
fffe
ffe0
0003
ffff
0025
fff8
0001
0007
ffe4
0000
0007
fffd
0000
0016
0001
ffd0
fff2
0004
fffe
fff8
0014
0012
fff2
0001
0009
ffed
0005
fff9
000f
0013
fff3
ffed
ffda
ffe5
0003
0001
0002
0010
0003
0000
0008
0008
ffd7
0000
0001
fff7
0009
fffd
0004
000b
0000
000b
0006
fffb
fff1
0005
0006
ffdb
ffeb
0004
0000
fff7
0006
fffe
ffd1
0002
0021
0001
0009
fff9
fff6
0011
ffc7
0000
fff4
0000
fff4
0003
fff6
000b
ffc5
fff4
fffb
fffd
0011
0003
0004
000b
0005
fffe
0004
fffb
ffe8
ffeb
001a
0005
0000
0023
0001
0008
0000
0007
ffff
ffff
0000
0012
0001
0008
0000
fff3
0001
ffec
fff1
fff1
0041
001d
fffd
0007
ffef
0005
001b
001e
0023
000d
0008
0018
000f
fffb
ffc9
0000
0000
ffd9
fffc
000c
fffb
0007
0001
ffff
002e
fffa
0006
0003
0001
000f
0002
0002
0000
0007
0002
0000
fff8
ffe6
0009
ffec
ffd5
0000
ffce
0002
0009
0000
ffd6
0003
0002
0000
0005
0028
ffe9
0002
0040
0000
ffba
fff4
0002
ffff
ffe6
0000
fffe
000a
0004
ffec
0004
0000
0003
002a
0001
0002
000e
fffd
0003
ffdc
0003
ffef
fff9
fffd
0000
0002
0001
fff7
fff3
001a
000e
0000
0000
0001
fff0
ffff
ffe2
0019
fff4
0001
ffe6
0001
0000
0002
0000
fff5
0001
ffdb
0002
ffec
0015
ffe6
fffe
000e
0001
0005
fffa
fff1
0008
ffff
0002
0002
0014
0004
0004
ffed
0005
000e
0002
0001
0006
fff3
0004
0004
0000
fffc
0015
0000
0000
fffd
ffea
fff2
0003
fff6
0007
ffd1
0001
ffff
0005
0011
001d
0000
001e
0001
001e
0001
ffff
000c
ffe4
ffee
0003
0002
0016
ffe4
fffe
0015
fffc
0002
000c
0020
fff5
fff8
ffef
0003
0000
0000
fff2
fffe
0000
0011
0004
0000
fffe
fffb
0001
0002
0002
000a
001e
0002
ffff
0001
fffb
000d
fff2
fffb
0004
0000
ffe6
ffd4
fff8
0001
0027
ffe3
0006
0003
ffdd
fff8
ffe9
0000
ffff
fff7
0005
fff8
0001
0000
0000
ffe4
fffa
0012
ffab
fffe
0000
fff4
0001
0002
ffdc
ffff
0013
0014
ffd9
001b
0000
ffd8
ffe5
0003
0003
0021
0001
0042
0005
0002
0004
000a
0003
0003
0008
ffd5
0002
ffe0
ffff
ffee
0007
ffec
ffff
ffff
0001
001d
0012
ffc8
0009
0001
0004
fff6
0004
0012
ffef
0001
ffff
0001
ffe6
0000
fff7
0020
fffb
0001
0003
0014
ffff
fffe
0001
0003
ffd8
0008
0016
ffff
ffff
ffed
0020
001c
fff8
fff5
001d
fffe
0002
000b
0010
0007
001b
ffe0
fff3
0007
0008
fffc
0014
ffe0
0006
0000
000e
fff2
000a
0008
ffe3
ffff
fff3
0002
0003
fffb
fff5
fff6
0002
0004
ffd3
001a
ffee
fffb
fffe
0005
ffff
0001
fffa
ffe8
0001
ffea
0002
0012
0000
0000
fffd
ffd4
ffdc
0000
ffe6
0003
0003
ffe5
fff8
ffa1
0002
0002
0006
0005
0040
ffd5
ffe3
0027
0003
0000
0003
fffa
0001
fffc
0003
0006
001c
000a
fff0
0002
fff7
0001
0002
0002
ffdd
0007
fffe
fffe
fff7
ffe6
0001
0006
ffcc
0006
0003
fffa
ffe6
0000
0001
0004
ffff
0012
ffcf
0026
000b
0002
001c
0005
ffe9
0001
fffe
0019
0000
0002
001c
ffff
ffe7
ffe1
0001
fff9
fffb
ffd6
0006
ffd9
fff5
fffb
001b
fffa
0008
ffff
fffc
0009
0025
0007
fffe
ffeb
fffe
fff0
0000
001b
ffbd
fffc
ffff
0001
000e
0001
000a
0005
ffdc
ffe5
0001
ffff
0016
fff5
ffd8
fffe
0029
0022
0005
fffa
fffe
0002
fffd
fff8
ffff
fff9
fff8
fffd
0000
fffd
0026
0007
0001
0000
000a
fffe
0008
ffdc
000c
000b
ffdd
ffe8
fffe
0000
0001
0005
001f
fff8
0012
001a
ffd7
0014
0005
0001
0012
0011
fffe
ffdf
0008
ffaa
ffff
ffec
0000
0001
0007
0000
0002
fffc
ffee
0004
0001
0002
0003
0001
ffd8
0007
ffef
ffff
0002
0001
ff90
0005
0001
0002
0009
0002
ffff
ffee
0008
0010
fff6
ffb8
ffe4
ffd2
ffef
ffff
001d
fff9
fffa
fffd
ffe8
fffb
0008
ffd5
fff3
0006
0002
fffe
ffbf
fffe
003c
fff2
ffff
0002
0014
000b
ffff
fff7
fffd
fffa
0008
002a
0006
fffb
0000
0005
fffd
fffe
0005
002e
0004
fffa
0007
0038
fff6
0021
ffef
fffb
ffff
001a
0010
fff9
0012
fffe
0004
0001
fffd
0011
fffe
fff8
ffe3
ffdf
000a
001e
0010
ffeb
fffb
ffff
0037
ffb5
000d
0000
0007
0000
ffe3
ffff
ffff
002d
0018
fffd
001d
0011
fffd
fffd
fffa
ffff
fffb
0005
ffff
fffc
0004
ffff
0006
0001
fff8
0000
0002
0025
0005
fffd
fffc
fff8
fff4
fffe
ffe5
ffff
ffff
ffeb
fff3
0001
fffe
000e
0015
fffd
0002
ffff
fffe
000e
fffc
ffee
ffd3
ffdb
ffb5
fff0
fff1
fffa
ffef
001d
ffdc
fffb
ffde
ffe5
fffa
0000
fffb
0001
fffc
0004
fffb
000a
fff8
fffe
fffb
0021
000d
ffef
ffb5
fff4
fffb
ffff
fff0
fffc
0003
0001
fff5
ffe1
ffff
000b
0016
fffd
fff5
ffff
fffe
000f
0000
fffe
0007
0010
0003
0001
0012
0004
fffa
002b
ffee
ffde
fffb
0008
0007
0005
0014
0019
000a
0033
fffc
fffe
ffff
ffe3
fffd
fff9
ffe2
0009
0002
fffb
0029
0014
0004
fffd
fffc
fffe
ffff
fffc
ffe3
0008
0000
0006
fffd
fffd
fffc
0000
fffe
000f
0006
0012
ffe5
001d
fff1
fffc
fffe
0001
ffdf
fff8
fffc
ffe0
0009
fffe
fff8
fffb
ffef
fffe
ffd7
fff3
ffec
fff2
000c
ffdf
fffd
fffc
ffff
ffe6
0005
0045
000d
0005
ffc0
fffe
004d
fffe
0001
fff1
ffff
fff8
ffd6
fffc
fff7
ffcb
ffc3
fffe
fffd
ffe5
000f
fffe
000e
fffb
fffe
0004
ffe7
0006
0003
fffd
fffb
fff8
ffdf
0003
0000
fffe
ffef
ffe8
ffff
fffc
fffd
fff5
ffff
000c
0000
fffe
0012
ffff
002d
fffc
fffa
000c
000f
0003
fffd
fffd
fffc
fffe
0000
0000
ffec
fffa
fffe
000a
fffd
fffc
fffe
fffc
0021
fffe
0002
0010
fffd
0012
fffe
fffe
001d
ffed
fffe
002b
ffff
fffc
ffea
ffe2
fffe
0016
0007
0008
fffc
ffe8
fffb
0000
0001
0003
fffe
0000
fff8
fffd
0003
0003
ffee
fffd
ffe1
fff9
fff4
fffb
fffe
0000
fffc
ffe9
ffff
fffc
fffe
ffff
ffe8
fffd
fff6
ffff
fffc
0018
fffe
fffe
0032
001c
fffb
ffc3
0004
fffa
ffcd
0014
fffc
fffe
0014
fffd
fffa
fff2
0002
ffff
fff9
ffdf
0010
0008
ffeb
fffb
0048
0001
ffe6
fffb
fffc
fff8
ffe3
fff9
000e
0005
0003
ffd8
0015
ffd9
fff7
fffe
001e
0033
fffa
fffd
fff2
fffc
ffed
ffde
fff7
0034
0001
fffe
0017
fffc
ffdc
fff0
fffe
0010
fffe
fff6
ffbc
0002
fff8
000b
0002
ffff
0017
ffd5
fffc
000c
ffe9
0015
0050
fffb
fffe
0026
ff9a
fffe
fffd
fffc
ffc8
ffff
0008
0003
fffd
fffb
fffe
0002
0014
fffb
ffb4
0004
fffb
fff4
ffeb
fffc
ffdf
fffc
fffe
ffff
0008
0024
fffe
001d
ffff
ffc3
0014
fffe
0003
fff3
fffe
fffd
fffd
0013
fffb
ffff
ffe9
ffce
fff9
ffea
ffe3
ffd6
001a
ffff
fffe
ffff
ffee
fffe
0015
ffc1
ffff
001d
0002
fff0
0011
0003
ffff
fffe
fffc
ffdb
ffe7
ffe7
0004
fffb
000a
fffd
0002
fffe
fff4
fffd
ffef
fff9
ffe4
ffe2
001e
fffa
ffc6
fff3
0000
ffed
0025
0004
fff9
fffb
0002
fffe
0000
0002
fffc
fffe
0005
0000
0001
001c
0002
0018
fffe
ff84
ffea
fffe
0000
ffff
fffd
001b
0003
fffb
000d
ffcb
ffe2
fff9
000d
001a
fffd
fffc
ffff
ffe4
fffe
000c
0036
000a
0024
ffff
fff4
fff1
ffff
ffff
ffed
fff8
fffd
0000
fffc
0004
fffd
000d
0010
001d
fffe
fffc
fffe
fff7
fffb
fffc
ffe6
fff7
ffe6
0008
fff8
ffef
0000
ffde
ffe7
fffd
0025
0010
fffb
0002
fffc
fff9
002b
fffe
fffe
0002
ffe9
0001
fff5
0000
ffdb
0004
fffb
ffe9
0003
0022
fffa
fffd
fffd
fffd
0001
0008
ffff
fffd
ffda
fff7
ffff
fffc
fffc
fffd
fffc
fffc
fff8
0001
0002
0001
fff8
ffdc
ffff
fffd
ffe8
0035
fffd
ffeb
ffa3
fffa
fffd
0023
0001
ffee
fffb
0012
ffe9
000c
fffe
ffda
fffa
0042
ffff
0004
fffa
fff9
fff9
fff5
fff5
0001
0001
fffc
fffc
0029
ffff
003b
0014
fffc
fffd
0012
ffd2
0000
0003
0002
ffcd
000e
0002
fffe
fffc
0005
fffb
001b
0033
fffe
0005
0000
000d
ffed
fff8
ffff
fff3
fff8
0018
fffd
fffd
0008
ffdb
fffa
0000
fffa
ffff
ffd2
ffff
0000
0000
0008
0000
0010
ffc2
fffe
fffb
fffc
fffa
0001
0051
fffd
fff6
0003
000c
0008
ffea
000d
002b
fffa
ffde
0000
ffee
fffd
ffde
ffdc
ffbd
000d
fffc
000b
0003
000b
fffe
0003
0012
0001
0000
000a
000c
0010
fffb
000e
fffe
0009
fff4
fffb
fffe
ffeb
fffe
fffe
fffd
000b
fffe
ffcd
ffe9
0007
ffff
fff1
0006
fff5
ffbd
fffc
0013
fffe
ffd8
fffe
0016
0014
fff3
ffff
fffb
fff4
0010
fff8
0000
fffd
fffe
ffed
fff8
ffef
0005
ffff
0000
0007
0017
000f
fff7
fff9
fffe
ffea
0002
0008
fffd
0007
fff8
fffd
fffd
fff2
fffd
fffe
0016
fffd
0007
ffff
000a
fffd
ffdb
ffff
0002
fffb
fffa
0018
0010
fff2
ff8d
fffd
003c
001d
fffb
fffe
0004
0002
000c
000f
ffff
fff7
fff8
fffe
fffd
fff1
fffe
fffc
fffe
fff4
fffd
0015
fffd
0015
0008
0002
fffe
fff4
ffff
ffe3
0006
ffed
0005
ff96
001f
fff8
fffb
ffff
0006
fff6
000a
fff9
0015
ffff
0000
fffe
fffe
fff3
fffd
fff7
fffd
000a
001c
fffc
0005
ffca
fffd
0016
ffdd
ffff
0003
001a
fff8
ffff
fff1
fffc
0002
0028
fffd
fff8
fffb
fff5
0002
ffb0
fffe
fffe
fffc
fffa
000a
fffd
0006
fffd
0000
ffee
fffc
fffe
fff8
0003
fffe
fffe
0008
0008
fff1
002b
0027
fffd
0018
fffb
ffff
000a
000d
0009
fff9
fffc
0004
0005
fff9
fff0
0004
0003
fff9
0019
0000
002b
ffe1
fffd
fffe
000d
002a
0004
fffc
0001
0000
fffe
ffef
fff8
ffff
fffd
fffe
fff8
0017
fffd
fffd
ffff
0007
000a
0014
0002
fffc
fff1
ffbf
0030
fffa
ffff
ffed
003d
fffe
ffff
0009
ffd0
0005
fffe
fffd
000e
fffe
0018
fffe
fff5
fffe
0027
fffb
fff0
ffdf
fff8
fff2
fff5
000c
fffb
002a
ffda
ffe4
0007
0015
ffe7
ffff
fff0
000b
ffe9
fffd
0010
fffd
ffd0
fff8
fffd
ffc7
fffc
fffe
fffe
fff8
ffd3
0001
fffb
fffa
0011
ffdf
ffff
0009
ffff
fffd
ffc2
000e
fffc
0021
ffff
fffd
ffff
fffc
fff7
0007
fff0
ffd9
0000
0021
fffb
000a
ffcd
fff7
fffb
fffc
fffa
fff5
fff8
fffd
ffff
ffe6
ffd2
fff1
0002
fffc
fffa
fff2
fffd
fffb
0004
001a
0005
ffff
0009
fff4
fffb
fff1
0021
000e
ffe3
0003
ffee
000c
ffe4
0000
fffd
fff7
ffd9
fffa
0001
fff4
0009
0014
0000
fffc
0013
000b
0005
fffd
fffc
ffff
fff8
0039
fffe
fff6
ffff
fffd
fff0
fff9
000f
001a
0004
ffff
fff8
fffd
0000
fff0
fff2
ffdd
fffe
0032
fffa
ffff
0017
000e
0020
0000
ffff
0004
0014
0023
ffe9
fffd
ffe0
0000
fffd
0002
0005
ffff
fffe
0009
fffa
0036
fff3
0012
ffff
fffe
ffff
fffd
0000
ffe9
0000
fffe
0007
0009
fffb
fffb
fffd
0016
0024
fffe
fff9
ffee
ffee
fffa
0002
fffd
0012
ffe6
ffe7
fff0
fffd
ffd7
0055
0012
0000
0000
0000
fffe
fffd
002e
fffd
0028
ffef
0002
0034
fff8
0018
ffec
0022
fffd
fff8
fff5
fff3
fff4
fffe
0003
0005
ffa4
fff2
ffd4
000a
fff6
ffe5
ffff
0004
002f
fffc
fffc
fffd
0000
ffff
0006
ffed
0013
ffe5
fffe
fffe
0034
0015
004b
0005
fff7
fff5
0004
000f
0002
000e
0028
0061
fff9
ffff
ffe4
fff9
fffb
fffd
ffff
0000
0004
fffe
ffee
fffe
ffe6
ffe4
0007
fff3
ffe2
0030
fffe
fffe
fff9
ffec
ffc1
fffd
0013
fffe
fffc
ffea
fffd
ffff
fff7
ffee
fff6
fff3
fffb
0018
fffe
001f
fffc
fffe
ffea
ffff
fffd
fff9
fffd
fffe
fffd
fffc
fffa
fffd
fffe
0010
ffce
fffe
0000
ffff
0013
ffff
ffff
0001
ffe6
fffc
0000
0025
fff4
000d
ffec
0028
ffdf
000b
0005
ffff
ffb7
ffff
0002
0001
fffc
0005
0037
ffff
fffd
fff7
fffb
fffe
ffe5
fffd
0016
ffdb
0001
fff1
ffeb
fff5
fff8
001d
0000
ffec
fff2
0003
ffe0
fffb
0003
ffef
0000
0000
001e
0008
fffc
fffc
ffce
ff8d
0006
ffde
0035
ffff
fffb
002f
0034
fff5
fff9
ffff
fffd
000a
0001
ffec
fffd
fffd
000b
002f
ffff
001b
ffe1
fffc
fffc
fff8
000a
ffe3
002d
ffff
fff3
fffb
ffc8
0000
fffd
000e
0001
0000
001a
ffef
0000
fffd
0004
fffc
0003
fff9
0001
ffff
fffe
0000
ffdb
ffed
ffff
fffd
fffc
fff0
0002
fffd
ffef
ffff
001f
0001
fffe
fffc
fff5
0004
fffc
000b
fffb
fff0
0011
ffff
ffff
ffff
ffff
fff5
ffff
000d
000c
ffa4
ffba
ffda
001f
ffff
0021
fff9
0001
fff3
001e
fffe
ffbc
ffff
0001
0001
fffe
0018
fffe
ffae
000f
fffe
0001
fffa
fff5
fffb
0026
fff0
fff0
ffff
fff2
0033
0000
0001
002d
000c
0001
0000
000c
ffff
fff3
ffff
fff3
ffec
fffe
ffff
0020
fffc
ffff
fffd
ffe7
0002
fff8
0017
fff0
001c
ffff
0013
0017
0008
000d
0018
fff4
0020
fffc
0000
fffe
0001
ffff
fffd
fffb
ffe5
0022
0003
ffe9
0010
0002
0001
fffe
0000
0002
fffd
fffa
fff3
0007
0003
ffff
fffd
fffe
ffff
ffff
0014
0008
000a
fff7
ffe6
fff8
0000
0001
fffb
fffc
0001
001b
0024
fffd
ffff
fff8
fff9
ffee
0000
0007
fffe
fff4
fffb
0007
fff7
ffff
fffb
fffd
0006
fffc
ffb3
0022
fffc
0010
fffe
fff6
fffb
fffc
0019
ffec
0002
0030
ffff
fff7
0033
ffac
ffeb
ffff
ffeb
fff1
fffc
000f
0000
0000
0005
0025
ffff
fffe
fff2
0000
0000
0007
fffa
fffc
fffe
0019
fff7
0015
fff3
ffff
fffa
fffe
ffe9
ffea
fff8
0006
0001
ffd9
fffb
0021
fffa
0002
0001
fffd
0002
fff7
fffe
0003
0000
0008
fffd
0000
fffd
ffff
ffff
0000
0000
fffa
0000
0009
000c
0000
0005
0001
fffc
0019
0035
fffa
0025
0001
0000
004d
0008
ffff
0000
fff8
fffd
ffff
ffff
fff2
0000
ffef
fffd
0002
fffe
000d
fffd
0005
fffe
ffe1
0000
0004
fff9
ffcf
fffc
0001
0032
fffe
000d
fff8
0001
ffff
fffd
0004
0000
fffc
fffe
fffe
ffe6
fff7
0009
0015
002d
0000
0012
0018
0000
0017
0034
0000
ffeb
fffa
0000
0002
0028
fff2
0001
fff2
ffff
0010
ffd5
0011
fffa
0061
0009
0006
ffff
001e
0002
001c
fffa
ffd6
001c
fff5
fffe
fff6
fffc
fffe
fffd
fff8
ff8b
ffef
000c
ffe6
fffd
0002
fff6
fffc
ffdf
0000
fff4
fff2
fffd
fffd
ffff
fffc
ffd9
ffff
002e
0010
000f
0000
fff3
fff8
ffe4
ffe9
ffbb
fffe
fff8
0003
ffc5
0019
ffff
fffd
ffdd
ffad
fffc
0000
0001
0019
fff4
0005
0018
0002
fffe
0000
fffb
001f
fffe
0033
0008
0004
ffe3
ffbc
0000
0003
0001
ffff
0002
ffe7
0018
0001
ffdc
000f
ffd6
fffc
fffe
ffed
fffe
ffff
fff7
fffd
ffde
ff8e
ffff
ffba
0013
0018
000e
000e
fffa
ffd7
fffe
0001
ffff
ffe8
fffb
ffbf
fffe
fffa
ffdf
0005
fff9
003d
fff8
ffee
fffe
0002
0025
ffeb
002c
001f
fffb
fffb
fff9
ffcb
0002
fffd
0000
0013
fffe
0005
ffbb
ffde
000b
fffd
0000
fff1
0015
0014
fffc
ffff
ffff
0000
0027
fffc
0010
fff8
0000
000a
fffb
0000
ffd7
fffb
fff8
000a
000e
0006
0009
ffdc
fffa
0001
001a
0028
fffd
fff7
fff4
0007
fff7
fff4
fff3
fffe
ffff
0000
0024
0000
ffef
002f
fffc
0015
ffff
001c
0010
0000
fffd
ffff
ffff
0000
0006
fffa
ff8e
fffe
fff5
ffba
ffea
0018
0001
0004
fffe
fff8
fffc
0011
001d
fffb
0013
fffd
0007
0000
ffe3
000a
fff9
0001
fff0
0005
fff0
0004
fff9
0031
ffff
fffa
fff7
fff8
0000
fffb
fff5
ffc6
fff4
fffe
0027
fffd
ffe3
fff9
0000
000e
0000
fffd
ffe0
ffff
0000
003c
0002
0000
fff7
fffe
ffff
0000
fffe
fffb
002c
fffa
fff1
fff4
001c
fff6
ffff
0016
fff5
fffb
ffff
ffdf
ffff
0002
fffd
fffd
0003
ffff
0022
fffd
fff1
0000
fffe
0003
ffda
ffff
0000
fff0
0006
0005
fffb
fff6
ffff
0000
fffe
0001
ffed
0000
ffc9
ffff
0002
fffb
ffe6
0007
0001
fff5
0003
ff69
0012
fff9
fff9
fffe
fff8
fff7
ffdd
000f
0019
fffa
fffe
ffe1
0000
fffe
ffff
fff3
fffd
ffd7
fffe
0001
002d
ffdd
fffb
fffa
fffb
fffe
0007
0009
fff6
001a
fff1
0002
001a
001b
0001
fffb
fffb
fff7
fffc
0021
fffe
ffff
fffb
0005
fff4
ffff
fffc
000a
0000
0004
fffe
fffa
ffff
0005
002b
0041
ffef
fffc
fff2
0004
fffc
0001
0008
0004
ffe1
fffb
0013
0008
0015
0001
001e
ffff
ffe9
ffd4
fffc
0000
fffd
ffff
fffe
fffd
fff1
ffff
001b
0021
ffec
ffff
0002
ffe2
0014
0036
ffe2
0001
ffff
0013
fffd
0011
001c
0008
0000
000a
ffe2
0012
0013
ffe0
ffff
0000
005b
fff2
fffa
fffb
0001
fffc
fffd
0046
fff1
0000
fffe
0001
fff9
fffc
0003
fffe
fffc
0001
fffd
ffed
fffb
fff7
000e
0017
0002
0045
fffd
0011
0001
fffd
ffdc
fffd
fffe
fffe
ffc2
0006
fffc
ffa1
ffff
ffc1
ffc6
fffe
fffe
ffa6
ffff
ffe6
ffec
0000
0023
0000
fffc
0000
fff4
0001
ffff
ffda
fffa
0000
000d
0001
fff3
0003
fffd
0001
0002
fffe
0003
002d
ffee
0001
002d
0016
ffff
0038
ffff
0012
ffef
fff7
0002
fff9
fffe
fff3
0004
fffd
001b
ffff
003b
0001
0005
0021
ffeb
fff5
fff9
ffff
fff1
003c
0014
fffe
fffa
ffff
fffe
fffe
fffe
ffff
0037
0001
fffd
fffc
0002
fffe
0034
0000
0000
0001
0004
fff9
ffff
0003
fff6
0019
0000
0004
fff1
fff7
fff2
0000
fffe
ffdb
fff7
001f
0034
0017
fffc
ffc1
0000
fffc
000a
0020
0004
0001
ffff
fffc
fff3
fff9
fff4
fffb
fff4
fff0
002d
001a
0024
000e
0000
0000
fffe
000a
0007
0000
002b
ffff
fffe
fff7
fffb
0000
0001
0001
fff6
ffea
0000
0000
fffd
ffff
fff9
ffe6
ffef
ffff
0002
ffee
0018
0005
0001
ffb2
000d
0002
0001
001a
0013
0009
ffff
fffe
fffe
0000
ffbd
fffb
0001
ffff
fffa
fff9
0003
0023
fffe
0023
fff3
0014
fffe
ffd9
002d
ffdf
fffe
0014
000c
fffd
0032
ffee
ffea
0001
000e
0001
ffcd
ffff
fffb
000e
fffe
0000
fff7
0000
0005
fff4
0018
fffe
fff5
0015
ffe3
fff9
fffe
ffff
002a
fffa
0049
ffe6
fffe
0001
fff6
ffff
fffe
001c
fff5
0008
fffe
fff1
fffe
fffc
ffde
fffc
fffe
ffff
0004
fffd
0000
0000
0002
0033
0008
ffee
0015
0000
0018
fff7
fff2
ffff
fffa
000f
fff3
fffe
fffd
fff5
0001
0046
0007
ffef
fffd
fffa
ffe9
fffb
0023
ffff
0000
000c
0001
0001
0003
000c
ffe7
ffe7
0000
0002
ffdb
ffee
fff3
0000
0002
fffc
0005
ffe3
fffa
fffe
fffa
fffd
fffd
fffe
0009
fff4
ffdc
ffff
0024
0000
fffa
0002
001d
fffe
0000
0011
fffa
fffd
fff0
0015
ffd5
fffe
fffe
0000
fff5
fff2
ffbc
0008
0031
fffd
fffe
fffc
0020
ffff
fff8
fffb
ffff
0018
fffd
0031
fffe
fff0
0002
0001
0008
002c
fff7
fffe
0007
ffee
fff6
ffff
0006
ffd7
0009
0001
fff6
0010
fff0
fffd
fffa
fffe
001d
fffb
0011
0004
0000
001f
ffe0
0035
ffff
0001
ffe8
fffd
0000
ffe5
fffd
fff6
ffe6
fffa
ffed
0003
0023
004b
ffd2
fffa
fff3
fff1
fff3
fff3
fffe
0037
0003
000b
ffff
002d
0035
0029
0006
fffd
003e
ffe5
0005
fffe
ffff
ffff
0001
0002
0003
0006
0001
0000
ffff
0036
001f
0004
0013
0007
fff5
ffe3
fff1
fffb
fffd
fffa
ffe9
fff8
fff8
0004
fffa
0000
ffff
ffc1
fffe
0004
ffff
fffe
fffd
fffc
0041
fff4
0000
0004
0014
fffd
0000
fffb
fff9
ff9a
fff4
fffd
ffe8
001b
0001
fffc
0001
fffb
fffb
0000
000a
fffe
0024
fffd
0011
fff4
fffb
001a
ffff
0001
002e
fff5
ffff
ffff
0001
fffd
0000
0043
fff1
ffe5
fffd
fffd
ffff
001b
fffe
fffc
fff9
fff8
fffe
fffd
fff7
ffea
fffc
0002
002c
0009
fff9
001b
0000
ffea
0008
0008
000a
0017
fffd
ffdd
0026
000f
0005
0007
fffd
0028
fffe
0006
0016
0001
ffff
000a
0000
0001
0003
0003
fffd
fff4
0032
001b
000b
0007
fffb
0001
0002
ffe4
0010
0004
0002
0004
000e
000c
ffe6
ffd6
fffb
0018
0013
0013
fff0
fff8
0003
fff6
0009
0002
0019
fffa
0005
fff9
ffe6
fffd
ffdc
000c
0010
0009
0005
ffe0
ffa8
ffdd
0001
0006
0009
003b
0003
0003
000b
fffc
0003
0005
fffe
0003
0001
0007
0003
fffe
ffed
0005
0001
0004
0005
ffdb
fff9
0007
0000
fffe
ffd7
fff4
0002
0003
fffa
0000
fffd
ffeb
fffc
0003
0006
0008
ffd0
0002
fff8
0015
0001
0004
0003
0001
fff0
0004
ffff
ffee
ffb8
ffd1
000c
fff4
0005
fff7
0011
0007
fff1
0005
fff9
fff5
0002
0005
0008
0000
0012
000e
ffbf
0000
0001
000b
fff7
fff6
ffd0
000c
000f
0026
fff6
ffe4
ffe1
fffc
0009
ffe8
fff5
0003
0002
002a
0004
fff9
0000
fffb
0013
fffb
0004
fff8
0007
0003
000e
001d
0007
fff3
ffe0
001c
ffe6
0003
ffe3
ffef
fffe
ffd9
000c
fff8
ff9c
0007
0003
0000
ffdf
0004
0000
ffe4
ffd6
fffa
ffe6
fff0
ffd9
0001
0003
fffe
0002
0000
0000
0023
ffe8
fff0
fff5
0001
ffff
0005
0003
0003
fff8
0002
ffe3
fff5
0027
fffd
ffff
ffff
fffd
fffb
0007
ffe6
ffd4
0004
0002
0005
fffe
ffde
0000
fff2
0003
001c
0007
fff6
001f
0006
0000
ffff
0010
fffe
000d
ffde
fff8
fff9
0000
ffe1
0005
ffff
ffec
fff8
0001
ffe3
0001
0003
000c
002c
ffdf
0001
ffdc
0003
fffb
fff7
0003
0001
0008
fffd
ffff
fffc
fff3
0007
000c
fff8
0001
000c
0005
0024
0017
ffd9
0008
0002
0011
ffff
ffeb
0021
fff9
ffe7
ffff
ffff
fff8
ffd8
0015
ffed
0002
0003
0005
0001
0002
0001
0004
0012
fffe
0003
fff8
0002
0006
0005
0007
0006
0001
fff5
000f
0005
ffff
0000
ffff
ffe9
ffd6
0007
0001
0004
0004
ffbf
ffec
0003
ffff
0003
fff7
ffff
0014
0004
0003
ffc3
0007
0000
0000
0043
fff7
0001
0004
ffd3
0002
0003
fff5
0018
0009
fffd
ffda
ffff
fff1
0004
000b
0000
0005
fffd
ffff
0004
0001
fffd
0013
ffff
fff7
0017
003c
0005
0031
ffe3
0008
0006
003c
0002
0004
fff3
0004
000c
000e
000b
0001
fff3
0008
000f
ffed
ffda
0001
ffe3
0008
0013
0005
fff0
ffff
ffdd
0002
0020
fff7
fff0
ffef
fff6
fff8
0000
fffe
0021
ffc5
000d
ffe1
fff1
0002
000f
fff7
0010
ffed
0007
0010
fffb
0001
ffe4
fff3
0000
001e
0002
ffe4
0041
0007
fffd
fffc
0004
fff5
fff9
fff3
ffff
ffe9
000d
0002
000b
0002
fffb
ffe1
ffbc
0002
0004
0003
003d
fffb
0001
ffec
0002
0006
0005
0005
0024
fffe
0015
ffe4
0008
fffe
000d
0001
000e
0011
000a
0002
0009
0020
0002
ffe2
ffdd
ffd2
0007
0002
000c
000d
0003
0000
0003
fff3
ff81
0001
001b
ffee
fff5
000d
fff0
0008
0048
0003
0008
0003
fffe
0004
0024
ffd9
0006
0044
0003
000a
ffcb
ffec
0002
0000
0003
ffd5
ffe2
ffd5
ffd7
0019
0000
0000
0015
ffff
fffc
0001
ffbf
0009
000f
ffa8
ffd0
0013
0004
000c
fff5
ffe5
ffe8
fffe
0002
0004
000a
ffca
0004
fff5
fff0
ffff
0006
fffd
0000
001a
fffc
ffeb
fff7
fffa
0000
fffb
ffad
fffc
0003
0010
ffe5
0001
000e
ffe9
000c
000f
ffe9
000c
0001
0006
0003
ffe2
0005
ffff
ffeb
0003
0025
0004
ffe7
fffa
0003
0000
000b
0005
0004
0001
0007
0012
0001
fffd
ffc9
000c
ffee
0009
0005
fffb
fffa
000a
fffc
ffc9
ffff
ffee
001d
001a
fffc
0006
fffa
fffd
ffda
0018
0002
fff6
0006
fff9
ff89
0001
0009
000b
fff6
0001
fff4
fffc
ffd3
fff7
000c
0028
000a
0033
ffff
0001
fff1
0003
0000
ffe4
fffd
0003
ffd3
fff8
0000
fffc
0002
000b
0003
0008
000f
0009
0005
0005
fff1
fff0
fff4
0003
002b
0029
0005
000f
ff9f
0005
0005
003e
0004
001c
ffff
000b
0003
fff7
0005
0023
0004
ffd7
0009
0008
ffc6
0010
000a
0007
ffde
0005
fffb
0004
0007
0003
0002
ffdd
0016
0002
0004
000a
fff2
fffa
0008
0006
0020
ffea
fffd
0006
ffe8
0012
fffb
ffe8
ffe3
ffe5
fffd
fffe
0011
0015
fff6
0001
ffea
ffff
0027
0000
0002
ffdf
fff0
0005
fffc
fffe
0004
0009
0005
fff8
0006
fff8
0004
ffe7
0032
fffe
ffe9
000a
fffb
000e
ffa9
0009
0012
fffd
000d
001a
ffe8
0006
001d
0005
001a
0004
000d
0002
001c
ffe3
ffbf
0003
0003
fff1
0008
000a
0002
fff1
0000
fff2
fffe
0002
fffd
ffeb
0004
ffd4
0002
ffd8
ffb9
0003
0003
0001
0002
0001
0001
0011
0002
0001
fffc
0000
0001
000a
fff1
0008
ffe2
fff2
ffea
000a
ffde
fffc
fff0
fffd
0017
0006
fff1
0006
0006
0013
ffde
0003
0002
000c
0022
ffff
0007
0003
0009
fff9
0006
001a
ffff
fffc
0003
0013
fffd
fff2
0000
0000
0006
0001
fffe
001a
0003
0000
0009
0004
ffde
fffd
0004
0004
ffef
ffe3
fffd
0009
0001
0045
0002
0006
ffd1
0003
0020
ff99
0003
0002
0048
0002
fff6
0031
0007
ffde
000d
0001
0003
0018
0005
ffff
0009
0000
ffff
ffe6
0006
ffff
fff3
0006
0002
0007
ffff
fff6
ffd8
fff8
fffa
ffe7
0013
0004
ffd2
ffff
fff2
0012
fff2
0008
fff4
fffc
fff9
ffff
0001
ffef
0002
0031
0001
ffe6
0022
001d
fff0
fff3
0001
0020
ffd5
000d
0003
000d
0009
ffff
0017
fffd
0000
ffc3
0005
0001
0001
0005
fff7
0022
fffe
0001
0007
001f
fffb
0004
0000
fff8
fff3
fff7
fff5
0016
fffd
000b
0006
0002
fffb
0002
ffda
ffbb
000d
0004
ffe3
0000
ffff
0000
ffe3
0001
0007
0003
fff9
0013
0002
0007
0007
fff7
0006
0029
002b
fff1
0026
0001
0002
0000
0002
fff3
0001
ffca
fffb
0002
0000
0004
0000
0006
0001
fff8
0008
0001
0003
0000
fff5
0007
ffe6
000c
0001
0004
fff0
fffd
0018
0000
ff99
ffe3
ffff
fffe
000e
0029
0004
0003
0009
fffe
fffd
0028
fffd
0009
0007
ffea
fffe
0010
ffea
000a
fff4
fffd
fffc
0000
ffe7
fff3
ffdd
0005
001d
ffd9
fffe
ffd8
0028
001a
0003
fffb
0005
fff2
0005
0005
001f
fffd
0001
fffc
000f
002e
0001
0018
0006
fff4
000d
0005
0002
0001
0001
000e
fff9
ffd1
0010
fffe
0002
fff5
0004
0005
ffde
ffe8
0004
ffff
0012
0001
0007
ffd6
000d
0000
fffd
fff3
000b
0004
000b
0001
ffd4
fffd
000b
ffff
0006
fff0
0019
fff7
0007
0018
0017
fffd
0000
0009
0007
0002
0022
fffa
000b
0014
0006
ffcf
000c
ffd9
0001
0004
fff2
000e
0000
fff0
0013
0026
fff9
0001
0001
fff5
fff7
fffd
0001
0004
ffcb
fffc
ffe2
fffe
0003
fffd
ffff
0008
0001
ffe1
fff7
ffe8
0000
0020
0003
0010
0016
0018
ffeb
0003
fff9
0000
0005
fffc
ffe1
001f
fffc
0001
0002
0007
fffb
ffa1
fff7
ff81
0000
0001
0000
ffe5
0004
000b
0006
ffff
ffeb
fff9
ffda
fffe
001c
0004
0001
000f
002f
fffb
0003
fff7
ffe6
0006
0002
000d
000a
0003
0001
0005
fff6
fff0
0001
fffa
0002
000a
000f
ffd3
0011
0001
0002
000a
ffe0
ffff
0002
0023
fffe
0000
ffef
000a
0002
fffd
fffb
fff8
000a
fff3
0015
ffe0
fff0
ffef
0020
fffe
ffee
0002
ffd0
fff3
ff92
0003
002e
ffd0
ffe1
000c
0000
ffed
fff3
fff2
0004
0002
0000
0003
fffb
000b
fff0
0020
0005
0003
0034
ffe5
ffd6
fff3
ffe2
001e
fff5
ffff
0002
fff8
0008
ffdb
0006
000e
fff8
000e
000c
0007
0012
ffff
fff8
0005
0006
000b
fff8
ff97
0020
0002
0023
001a
0003
ffff
0007
0021
fff3
0009
ffe8
0007
ffe3
000f
0002
0001
fff6
001c
fff8
ffec
0001
ffa9
ffff
ffe8
ffff
0001
ffb6
ffff
0002
fff4
000f
fffd
0007
0006
ffff
0003
ffd9
ffea
fff8
0000
ffff
fffe
fff7
0000
ffff
000c
0014
0002
0007
0020
ffed
fffd
000e
ffa6
0016
ffe0
ffe6
fffb
ffd5
0001
fffc
0004
fff6
fff5
ffff
fffc
ffe3
ffff
000a
fffe
0020
fffc
0031
0020
fffc
0000
0018
ffea
fff2
fffd
fffc
000b
fffd
ffe1
001b
ffea
0001
0002
0000
fffd
0013
0028
001c
fff0
ffea
ffb5
ffe5
ffd4
fffc
0004
0014
ffc9
ffec
ffed
ffe4
ffff
fffb
fffc
fffe
fffb
ffeb
0003
fff8
0013
fff4
001b
0026
fff1
fff1
0000
000c
0027
ffe5
fffc
fffd
0005
ffd6
ffff
fffc
ffe5
0014
0001
0019
ffff
fffd
fffc
fff8
0000
0025
000e
fffd
fffd
fffa
0000
0023
ffff
fffa
fffe
fffd
0002
003a
fffb
0017
fffb
0031
fffa
0000
0003
fffa
fff2
0012
0008
fffc
0011
0029
ffff
fffc
fffe
fffe
0002
fffb
fff9
0019
0023
0036
0009
000a
fffc
fff5
ffe5
0010
ffff
0017
0004
ffe6
ffff
fffd
ffff
fffe
001e
0005
ffe8
0000
fffc
fff7
0011
0017
ffef
ffb0
0034
ffec
fff0
0006
ffff
fff6
0001
0005
0010
0001
fff4
0007
fffc
fffd
ffff
fffd
ffd2
fffa
fffd
001e
ffed
ffef
fffb
fffc
ffff
000c
fff5
ffe0
ffc0
fffd
0019
0028
0022
0019
0010
ffe0
001e
fffd
fffc
fff4
fff2
fffe
fffd
ff9d
0012
ffe3
fff5
ffaa
fffe
fffe
0001
fffd
fffd
fffc
fffb
fff0
ffd4
0001
fff4
fffc
fffd
fffe
fffb
0000
ffee
ffec
fffb
0014
ffd6
fff1
0006
fffd
ffff
0041
fff9
0005
ffed
fffd
fffd
000a
ffff
004b
ffff
001e
fff9
002b
0015
fff1
ffea
fffa
fffc
0003
fffe
0001
ffba
0014
ffff
fff4
fffc
fffe
fff9
fffd
fff3
fffe
fffd
fffb
fffb
0018
001a
001e
001f
fffa
000b
fffb
fffc
000c
fffc
fffd
000b
ffec
fffa
000a
0009
ffff
fffc
0001
ffed
ffe4
fffb
ffd4
fff6
fff6
000a
fffb
000a
fffc
0001
ffd4
fff9
fff7
fffd
001f
fffb
0017
ffd3
ffe3
fff3
fffb
0001
fffe
fffd
fffb
fffd
ffd5
fffb
fffc
ffe7
fffc
0003
fffe
ffff
0001
fffe
fff2
0015
0000
ffec
fffe
fffa
ff54
fffe
fff7
fff7
fffd
fffe
fff1
0033
fffc
ffec
0002
fff6
fffc
ffff
0016
fffc
0009
fff9
0000
fffd
ffd2
000a
fff7
ffeb
0047
fffc
fffe
fffb
0028
0006
fffe
fffc
fffb
fffb
0008
0020
fffd
0004
ffe8
fffc
0040
0000
0000
000f
fffe
fff0
001c
0002
fffb
0011
fff4
fffe
0018
ffe1
fffc
0016
000e
ffff
fffe
0006
000d
fffc
0010
fff0
0017
001e
0005
fffb
ffaa
fffa
ffee
0001
0001
ffee
ffce
fffc
0024
fff6
ffed
0024
0026
0028
fffc
fffc
ffba
001b
0009
fffd
ffe1
fffb
0006
ffed
000b
fffb
fffd
fffe
0013
fffc
000c
ffd6
fffb
0013
fffe
fffb
003c
0019
0004
fffe
fffb
0006
0003
ffed
fffc
ffe0
ffee
0010
003b
fffb
fffd
0026
fff6
fffb
fffc
fffd
0024
fff8
0012
fff6
fffd
fffe
0002
ffff
ffe9
fff8
0016
fff3
ffff
000a
ffe8
fffc
001e
0005
fffd
ffe9
000b
0015
fffb
0022
fffc
0007
0009
fffd
0018
0009
fffe
0004
fffb
fffd
ffda
fffb
0022
0013
0003
000f
0038
fff4
ffe8
fff5
0004
fffc
000c
fff7
0021
006f
fffe
ffbf
fffe
fff8
fff3
0002
0011
ffff
fffd
ffff
000e
ffed
0002
0001
0001
0000
0030
fffb
fff9
fffd
ffc2
0004
0017
002a
0004
fff8
002f
ffff
ffff
0015
fff8
fffe
fffe
ffff
0005
fffe
0001
0004
0008
fffc
0001
fffc
fffc
0015
fffb
0019
fff1
0034
fff9
0013
fff1
0002
fffd
0004
0022
fffb
0012
0048
001b
fff0
ffdb
001d
fffa
0000
ffff
ffe1
fffd
ffcb
0004
ffeb
fff3
fff8
ffec
ffdf
fffd
fffc
fff6
0002
ffff
ffef
fffb
ffc4
fff4
0006
0014
ffe4
fff7
fffb
fffd
fff7
ffff
fffc
ffe9
ffe6
fff6
ffcd
0016
000c
fffe
0019
0001
fffd
ffef
ffe3
0013
0008
fffb
ffff
0014
fffd
0002
fff4
0008
fff9
fff7
fff6
ffc4
fffd
0003
ffe1
ffeb
ff9e
fff2
fffa
0007
fffd
fffd
001a
ffff
fffe
ffcd
000b
fffd
000e
fffd
fff7
fffc
fff8
0003
000a
fff9
0007
fff9
fff9
fffe
fffc
ffdd
0027
0006
0009
0025
fffe
0002
ffad
fffc
000b
fffe
0001
ffff
001d
fffe
ffe3
fff5
0008
fffa
fff7
0023
0009
fffa
0007
000f
fffd
0001
fffc
fffd
ffc9
0000
002e
fff1
fffe
fff7
0015
ffd9
fff8
000b
fffc
000b
000f
ffff
fffd
ffd8
0002
002c
000c
001b
fff0
fffe
fffc
0018
000e
ffec
fffd
0006
fffb
fff5
fffc
0001
fff6
0018
fffa
ffff
fff6
fffd
fff2
fff7
000c
fff9
0000
fffc
fff4
ffe8
fffd
ffeb
fffd
fffc
000a
ffe2
ffff
000b
fffc
000d
fff8
fff1
ffef
0011
fffd
000f
fffb
001d
fffd
0014
fffe
000f
000f
fffa
0021
0001
fffa
fffd
0001
0004
000b
fffa
001a
ffe9
000c
000b
0009
ffff
ffe8
ffaf
ffea
ffff
fff7
fffe
fffe
ffff
000b
fffb
000c
fff1
001e
fffc
0020
0031
fff3
ffe0
0009
ffe2
fffb
ffd4
0000
ffe7
0013
ffec
0023
ffed
000f
0003
ffee
ffe7
fffd
fffe
ffc3
ff94
0003
fffb
fffb
ffff
0002
ffce
ffed
fffc
0003
0000
0016
fffd
ffeb
ffff
fff0
0006
fffd
000b
0003
000d
001b
002b
fffe
fff0
fffc
0018
0000
ffec
0007
fff8
fff6
fff6
ffca
0007
0002
000a
fffc
ffeb
ffe3
fff0
fffd
ffa5
fffd
0004
ffac
fffc
fff1
fffd
fff9
fffe
000c
0001
fffc
000e
0001
fffd
ffeb
0002
0012
fffe
ffff
ffff
fffd
fffe
0016
fff6
ff7f
fff6
003e
0007
fffc
ff87
fffb
0009
0005
fffb
fffc
0039
fffc
0002
fff7
fffe
0005
fffc
0031
fffe
000c
0010
fffa
fffb
ffff
fffd
0018
ffa8
fff7
fff0
fff1
fffe
fffb
0018
fffd
fffa
fff8
ffff
fff1
0003
fff7
fff9
ffe0
fffa
fffd
fffe
0001
fff2
fffd
fff8
0000
0000
ffe5
0006
fff1
fff8
0037
fffe
fffc
ffee
ffe3
ff83
ff97
000b
fffe
ffb2
0003
fffe
ffde
000f
fffa
fff9
fff9
ffec
fffa
fffb
0004
0006
fffa
ffff
000f
0026
0017
ffec
fffc
ffff
fffd
002a
fff9
fffc
001a
fffa
fffd
fffd
0004
0001
0002
fffc
ffff
ffbe
fffc
ffff
ffff
fff8
ffef
fffd
0020
fffe
fff0
004c
ffd4
fff8
fffc
ffd9
0039
fffa
0001
0016
ffcf
fffb
fffc
0002
0007
fffc
0013
fffe
fffd
fffe
fff7
0005
0004
ffa7
0000
0022
fffe
0003
fffb
0002
000b
0009
ffcd
0014
004b
fffc
ffe7
002c
ffea
fffc
ffc0
0002
fffa
ffff
fffc
0015
fff9
ffff
fffd
fff2
ffe4
0002
fff2
0002
000b
ffdf
0028
fffa
fffd
fffb
001a
ffe8
fff9
ffc6
fffd
fffc
000d
0002
fff4
0007
ffff
fffc
fffe
001a
fffc
0005
0007
0000
fffb
ffff
ffe2
000b
0009
0002
fffd
ffdb
ffeb
000b
0006
fffe
001e
0021
ffcb
ffff
ffe7
0031
fff9
fffc
fff1
0000
fffc
0024
000e
0002
000f
ffea
0013
ffcd
ffed
fffb
fffc
fff6
ffec
fff7
fff2
0013
ffbf
0011
ffff
fffb
000d
0013
0000
fffc
fffe
0033
ffab
0003
fffe
fff2
fffe
0000
ffff
fffd
0012
0019
001e
fffe
fffe
fffd
ffe1
ffde
0029
fffe
fffe
0011
fff0
fffd
0014
0004
001a
fffa
fffc
ffeb
0007
ff97
0003
0008
0025
0001
fffc
ffff
000b
ffff
fff3
0002
fffc
0011
ffe4
fff7
fffd
fff6
ffff
fffd
0005
ffe0
0000
fffe
fff7
0018
0001
fffe
ffe2
0006
fff8
fffc
0008
0003
0014
0000
0000
fffb
0001
0013
ff76
ffc7
fffd
002f
0020
0006
fffd
0000
000a
fffc
fffb
fffe
ffff
0017
0003
fffe
ffff
0006
0008
ffb6
0029
0003
0005
0013
001a
000e
fffc
000a
ffef
003f
0006
ffe1
ffda
fffe
0021
ffff
000d
000e
0001
fffd
fffc
ffe7
fffe
fffa
ffdf
001f
fff0
fffd
fffe
002f
ffeb
0032
fff2
ffb5
000e
fffe
000c
0001
0008
ffea
000d
0002
0008
ffff
0003
0003
fffc
0033
fffd
fff8
fffb
0002
fff7
fffa
ff97
ffaa
0008
0022
0016
fffc
0000
0001
ffce
0031
0001
fffd
0008
0000
000b
0000
fffe
fff1
0015
0025
0013
fff5
ffb2
fffc
fffe
ffed
fffb
ffbe
fffe
fffd
fffc
ffdf
fffb
0001
fffe
fffa
fffc
ffdb
0006
0004
fffd
fffc
fffc
0055
fffc
fffd
fff9
fff5
fffb
fffd
0037
ffdf
0012
0010
fff5
ffde
0000
ffe9
0003
004e
0000
0004
fff7
0020
0006
0017
0028
000e
ffea
fff2
0008
ffe4
fffb
fffd
0021
0002
fff4
ffed
ffed
fffc
001b
0005
0022
0017
ffd5
0009
000b
0007
0011
fffd
0003
0022
ffd1
0001
000e
ffc0
0038
0014
ffed
fff9
fffa
ffe1
0035
000d
fff3
ffe5
ffff
fff9
0006
0005
ffef
fffa
fffa
ffe4
0041
fff2
fff7
fffc
0015
fff0
fffd
fff8
ffd7
0019
0004
fff2
fff4
ffae
0003
fffc
ffec
fffd
fffc
fff7
fff5
0003
0001
fffa
0002
fffc
002b
0002
0004
fffb
ffff
0005
0010
0002
fffd
000a
0050
fff1
fffb
001e
0003
ff9e
0007
000d
0001
0012
fffa
fff3
ffeb
0002
0000
ffed
0001
ffff
0001
fffd
fff5
0002
fff0
fff7
002a
0049
0005
002e
fffb
fff7
0008
fff0
ffef
0032
fff6
ff9f
0001
0004
fff7
0007
001c
fff0
0011
0010
0001
fff6
ff5e
0004
ffdf
ffc6
001b
000e
0002
fff1
ffd6
0001
fffa
002b
001e
fffe
0009
000a
0003
000c
fffa
0015
ffff
0005
fffe
002f
fff7
fff5
ffec
ffcb
0000
ffff
ffdf
ffd5
003e
0005
fff3
0026
003c
0010
0005
fffe
ffc8
fffe
0004
fffd
ffea
0001
0008
ffe5
0036
000b
0002
ffe4
ffe7
0001
fffe
0004
0004
fffd
0003
002a
fff0
fff5
0007
fffe
0006
fffd
0002
fffc
fff2
ffee
001b
0007
ffa5
0025
fffa
0002
0007
ffd4
ffff
fffe
002e
ffec
0002
fffa
000b
ffda
fffc
ffec
0005
0006
0019
fffa
ffed
fffc
0007
fff7
fff9
0003
fff2
000d
fff7
ffd7
ffff
0001
fff2
fff3
0018
0011
fff7
ffd6
0001
0017
001c
ffc5
ffe4
0005
ffdb
fffc
fff9
0005
0002
0004
ffff
ffea
fffb
ffff
001c
fffd
0001
ffea
fff5
fff6
0000
0002
ffe8
fff6
ffdb
0001
ffef
0000
0014
ffc6
0006
fffd
0001
ffb9
fff4
002c
ffdf
000b
fffa
0005
fffc
000f
fffe
0000
fffd
0025
fffa
0004
0008
0003
fff7
0002
fff7
0007
0000
fffd
0010
0000
000a
0005
fffb
003c
ffe4
0004
000f
0002
0002
ffcf
ffee
0004
0018
fffa
0008
0005
0014
000b
fffc
0047
0000
0000
0001
0040
ffec
0002
fffd
ffff
0004
fff1
0001
0014
000e
000f
000c
0004
0002
fff3
0017
0001
fff9
0011
0003
ffd1
0007
0009
001e
000a
fff3
0010
ffa4
fffe
001a
ffff
fff7
000e
ff8b
0006
fff8
fff4
ffff
fff1
0018
0016
0002
0009
ffff
001e
0014
ffe2
fff5
001c
0005
0003
fff9
0025
0003
ffdb
000e
ffad
000c
0005
fff0
fff2
fff0
0004
0004
0017
0043
fff3
000a
0007
fff5
0001
fffe
fffe
ffb6
0004
0009
0000
0005
fff0
0006
ffff
000b
0002
000d
0001
fff3
0007
ffff
fff6
0015
fff6
fff9
0006
0006
000a
ffec
ffa8
0004
0003
000d
ffab
fffd
0002
fffc
001b
0003
0006
fff5
0005
fff5
fffb
0000
fff3
0005
001c
001e
ffff
0017
0007
0005
fff3
ffee
fffa
0003
0000
0006
fffc
003d
ffe3
0010
0004
ffff
001f
ffec
0001
000d
ffff
0029
004e
0000
0007
ffcf
0011
ffee
0014
ffe9
ffab
0002
ffee
fffe
0015
0003
fff1
ffcc
0000
003c
0004
0003
0032
fffa
000f
0001
fffc
ffef
fffb
ffe0
fff5
ffef
0020
0005
0007
0003
000f
0004
0061
ffee
fff0
004a
ffad
ffff
fff4
000b
0012
fff1
0004
0002
0002
fffe
0006
ffea
fff8
000a
fffb
0005
0001
fffc
0001
0009
0007
0000
fff0
0044
ffe9
fff9
002d
000b
0004
ffa5
002b
0001
fff4
0025
fffa
001e
ffeb
ffd6
0002
ffed
fffa
ffee
0003
0014
000b
ffee
fff3
000b
0009
fff0
0003
fffb
0014
fff4
fff1
0000
ffff
ffff
0008
fffd
0013
002c
0001
0006
0002
0009
0000
0000
ffd6
ffe7
0000
ffef
fff6
001f
0001
0009
fff8
000c
ffb5
0000
0007
0014
0000
ffff
ffa5
0002
fff8
0009
ffe4
ffef
ffdf
fffb
ff96
000e
fff0
fff5
fffd
0024
0003
fffc
0009
0009
fff5
0012
0001
fffd
ffc3
0001
0000
ffe3
0007
fff4
fffe
fffc
fff7
0023
0003
0023
0005
ffe0
fffd
0002
ffd0
0021
fff2
0003
ff86
0003
fffa
ffd9
fffc
fffd
0002
003b
0003
fffd
0002
0035
0000
ffed
fff8
ffef
001f
fff5
fffb
ffe3
0011
ffff
fffd
0002
0005
fff8
0004
ffff
fff5
fffa
000c
ffe8
000c
0000
ffef
fffe
001e
ffff
0008
0008
001b
fff7
ffef
0013
fff2
0006
0005
0001
0003
0002
0006
0001
000a
000b
ffd8
0003
fffe
ffec
0052
fff1
fffb
fffb
0003
fff0
ffef
000f
000b
0012
fffa
0003
0003
fffb
fff7
0006
000f
ffe7
ff9a
fff0
fff7
000a
fff9
fff8
0003
ffe5
0018
0005
000e
0000
ffec
0006
0008
ffed
ff90
ffe7
0005
fff5
0002
fff8
0004
000a
fffe
000c
0008
0020
fff8
0005
0012
002b
0002
ffe8
001e
0011
fffd
fff4
0000
0003
0003
ffff
0002
fff0
fff2
0003
0004
fff7
0033
0007
ffe5
001f
001e
fff0
000e
0004
fff5
001c
ffdf
fff4
ffe8
0004
fffa
fffd
ffdb
0000
0005
ffe5
0011
0002
fffa
fff6
fff0
fffa
001b
ffff
fffc
000b
fffd
0005
ffff
fffd
fffd
ffff
fff2
0006
0019
000a
ffe3
0010
0026
0003
fff5
ffff
ffd1
fffd
ffe2
0020
0006
fffc
0009
fff3
0002
fff4
ffe2
0004
002a
ffd1
0007
0003
0022
fffe
0010
000f
fff8
ffdf
fff8
0001
0005
fffe
fffc
0005
0005
0008
0006
0004
fffb
fff6
fff8
fffd
fffc
fff3
0004
0003
0030
0034
0009
ffeb
000d
0004
003b
ffff
fff3
0005
000a
0000
fffb
0001
000e
fffe
ffff
0029
0003
0027
0005
fff5
001c
0023
000c
fff4
0004
0008
ffd2
fff5
ffe9
000a
0002
0004
0004
0007
fffb
ffef
fffa
fff8
0003
0000
0006
002f
0002
fffa
0005
ffdd
ffe8
0003
fffc
fffe
001a
fff3
0019
0005
ffff
0036
0000
0001
0021
ffe9
0024
ffc7
0001
0004
0036
0007
0002
000e
002a
fff3
fff5
0002
fffe
fff9
fff3
0009
fffd
000f
0003
ffa9
ff78
fff8
0015
0003
0002
fffa
fff3
fff5
0002
0033
0010
0002
fff7
fffd
fffd
fffa
0001
0002
fffc
0004
0002
0007
fffb
fff5
0011
0002
0007
0010
fff6
ffe1
fffc
0001
fffb
fff5
fff2
fffe
0027
0017
ffee
0003
fff4
0014
0004
ffed
0008
fff6
fffb
0000
0008
fffe
0025
fff9
0022
fff9
0026
0005
ffe3
002b
0011
0005
001c
0003
fffe
0003
0014
fff0
0004
ffe8
fffc
ffbd
fff4
fff3
fff8
0008
fffc
fffe
fffa
0029
000c
ffe0
0000
000c
fffe
0014
0002
0001
0005
001f
fffe
ffe1
0015
ffff
0003
0020
ffff
fffb
0016
fffd
ffec
0001
ffe0
0003
000f
0011
ffea
0001
fffa
fff9
ffee
ffff
ffe6
0003
ffff
ffef
000d
0010
0002
003d
fff9
ffff
ffff
0019
fff7
0007
0005
fff4
0009
fff8
ffe2
fffc
0014
000b
fffd
ffd0
ffee
fff8
fffc
0004
fffc
001c
0000
0000
ffca
001e
0008
fffc
ffff
0033
fffe
000d
0003
0003
0068
0016
ffe5
0005
0010
000b
0006
fff3
0005
fff1
000f
0022
fff6
ffed
fffe
0005
0016
0011
ffe6
fffd
0023
000f
0001
000c
0000
003c
fffb
fffa
0002
fff0
ffe9
ffea
fff5
004f
ffff
0002
ffff
fffe
ffff
fff4
fffc
0004
fffe
0017
0005
ffff
0002
fffa
0002
fffb
ffff
fffd
0003
0009
fffa
ffff
0006
fff5
ffe0
000f
0004
000a
ffe8
0018
fff8
0008
ffff
0003
0036
0044
0019
0005
000d
fffd
0031
0001
0006
ffe2
0001
0002
0003
fffc
0018
ffde
0006
0004
0006
fff1
0004
000c
fff7
0011
fff8
0004
0010
ffff
003f
0006
ffab
ffee
ffdd
0019
fff9
ffe7
fffd
ffcd
fff5
0013
fffe
0004
fffc
0001
0000
0003
fff3
0022
0002
0001
ffe3
fff9
003e
fffc
000d
fff4
000e
fffa
0004
fffd
000d
fff5
fff3
ffe7
0003
ffed
ffec
0004
0007
fffd
fffc
0002
fff4
fffb
0002
0032
0026
ffde
000c
0006
fffe
fffd
fff2
0006
004b
0010
0002
000a
0030
0006
fff8
0004
fff8
0005
ffdf
000a
ffff
fff6
fffe
ffed
0018
0004
0050
ffff
0004
0002
002b
0000
fff8
fffc
0004
0003
000a
001a
0004
0002
0002
fffb
0027
fffc
fff7
fffa
fff4
fffa
0002
002b
0006
0018
fff6
ffcf
0038
ffe1
ffe3
0000
ffc6
ffff
fffc
0008
fff6
000c
0014
0000
0000
0012
000b
ffff
ffd2
ffed
ffbf
001f
0002
ffea
0008
0013
0008
001d
0001
0010
fffa
0004
ffe2
0003
fffe
0006
0003
0001
001b
fffc
001b
fff6
000f
ffe2
fffb
0010
0022
0009
0016
ff9b
ffa3
0004
0013
0004
fff5
0015
fffd
001d
0003
0008
ffe8
0032
0012
0013
0020
fff3
000b
fffb
0006
0049
fffe
ffff
0013
000c
ffc4
0001
0007
ffd1
0006
0004
ffc6
0009
0003
0000
0000
fffc
fff7
0004
0004
fffb
0005
0005
ffc1
0005
fffd
fff6
0000
0006
001a
0004
0016
fff5
ffb1
fff6
000f
0001
0008
000c
0002
ffb0
0002
000b
0009
ffff
0002
0004
0003
ffec
fffe
fff0
ffe4
fff6
0026
000f
001f
0003
0023
ffbd
fffa
ffed
001e
fffe
0029
0003
ffff
000d
fffc
0009
000d
0034
000b
0000
0008
ff9f
0024
003a
fff7
001f
0016
fff7
fff9
003b
0002
000b
001b
000c
0004
fffa
ffc9
0001
ffff
0001
fffc
0019
fffe
0005
0016
0012
000e
0013
ffbc
000c
fffe
ffd3
fffc
ffd3
fffc
fff6
0007
0019
0005
0011
0009
0008
0003
0004
0005
ffff
0004
fff8
ffcb
ffef
002e
0008
000c
fff2
000a
0002
fff9
0002
0004
fffd
0041
0007
fff6
fff3
0003
fffd
0005
0005
0001
fff1
ffea
fff9
fffe
ffa0
ffe3
0001
0000
fffe
000d
fffd
fffa
002c
0015
0000
0003
0000
000d
0004
0000
fffd
ffb0
0004
0008
001b
0003
ffff
0006
fffa
000b
0025
001a
ffe7
fff3
0002
fff3
000d
ffeb
001c
fffc
ffff
0019
ffff
0021
ffce
ff9c
ffc9
0000
ffdf
0008
fff5
000d
ffff
0002
fff9
001f
000b
ffd5
ffea
0002
ffff
ffec
000f
000d
0002
ffd2
000f
fff0
ffcb
0000
fff9
0004
0000
ffc4
fffd
ffea
0002
ffd3
fff8
0012
001a
fff4
000d
fffe
0003
fff8
0004
0000
0009
fff6
0000
0000
fffb
0004
0007
0001
0006
0006
0001
0005
0016
0002
0007
ffff
0005
ffad
0028
0007
ff95
0004
fffe
0035
0004
0003
0002
0008
fff8
0000
fff5
000c
0007
ffc9
0002
0003
0001
fffb
fffc
fffd
0009
ffee
0001
fff4
fffe
0039
ffff
001e
0023
fffd
fffd
000a
ffdb
ffff
0009
ffea
fffd
0014
fffe
ffe7
0001
fff3
fff9
ffed
ffbb
0002
fffc
001a
0006
ffe5
ff82
fffe
ffc0
ffdc
0003
fff9
003a
0011
0000
fffe
fff1
fff4
000f
001b
fffa
ffce
000f
fffe
0006
000b
fffd
005c
fff4
ffe4
0016
fffc
fffe
000b
ffff
0003
0000
0016
ffbc
ffdb
ffe9
0006
fffb
ffed
fffb
ffe4
002a
0001
0006
000d
ffff
fff2
fff0
0003
0016
ffff
0018
ffd0
ffc8
fff9
0017
000d
0008
0017
ffe5
0001
ffff
fff5
0037
ff95
0003
fffc
0015
0054
0003
0002
0000
ff72
0004
fffd
000c
0001
0008
0006
fff8
ffd6
fffb
003c
fffe
ffff
0010
0044
0000
0000
ffe6
0008
ffff
0017
ffcd
0006
fff5
ffe9
0010
000c
0001
0029
0005
0003
fffe
0001
ffff
002e
0001
fff4
ffeb
0014
ffef
0035
0002
001d
0002
0006
0006
fff6
0004
ffaf
fff6
0003
0012
fffe
000b
fff2
0043
fffa
fffe
0004
0023
0003
0038
ffb4
0011
fff4
fffd
ffb7
0000
ffef
ffff
fffd
0008
0008
0009
0028
fff2
0004
fff7
0001
0017
000f
0000
fffd
0000
000c
0023
fffd
0009
ffef
fffd
fffe
fffc
0003
fffe
ffff
ffd4
000f
ffca
fffe
fff4
ffdb
ffef
0000
ffef
ffd6
0001
0011
ffec
fff9
fffd
0006
001e
0000
0006
0008
0021
0002
0002
ffcd
0012
ffa8
fffc
0019
002c
0001
fff9
fff2
0004
000a
fffa
0004
ff72
ffff
ffe3
ffc9
0005
0018
ffff
fffc
0008
fffc
0005
fff1
fffa
fff8
ffe8
fff5
0012
0002
0005
0006
fffa
0011
001a
fff9
000e
0001
fffc
ffa4
0001
fffc
0005
ffef
000c
ffff
000a
0052
fff2
000c
ffdd
000c
0019
0002
0005
fffe
0003
0009
001d
ffff
0003
0058
fff9
0001
0028
fff9
000a
0001
0009
0002
0029
0007
ffff
0005
0015
fff4
0002
ffff
ffba
000a
ffe5
fff2
fffa
0005
ff7b
0008
fff9
fff6
003f
fff8
000f
0002
fffb
001b
002f
0008
0010
0016
0000
0004
0008
0016
0008
0005
ffff
0000
0015
0002
002f
000f
0003
fffd
0019
ffea
fff2
ffdb
0005
0040
fff7
0001
0001
ffe0
ffe2
0005
001e
000e
0018
0005
0000
0018
ffdf
ffef
0002
ffee
0008
fff0
fffd
0001
0029
0024
ffff
0006
0001
0004
fff0
fffd
fff9
fff1
0002
0006
001b
0002
ffff
0008
0002
fffb
0010
0051
000e
ffcc
fffe
0013
0014
000c
0017
fff1
fffe
ffea
0004
0005
fffc
ffeb
001a
0055
ffd5
fffe
ffc2
ffe2
0007
fffd
0002
ffe8
0013
ffff
ffed
000e
001c
ffbc
fff6
0001
fffc
0016
fffa
0005
001d
0001
ffff
ffff
ffd0
0000
fffc
0012
0008
0000
fffd
0001
fff7
ffd3
0016
fff8
000f
001c
fffd
ffe9
0003
ffee
ffc8
0005
000b
ffd2
ffed
ffd9
0000
fffe
ff5b
0036
0010
000d
000a
000b
ffef
001f
001c
0000
fff5
0003
ffd9
0005
ffed
0001
0006
0001
ffff
fff9
0003
000d
0012
fff9
0000
001d
fffe
ffdf
0004
ffef
0000
fffb
0009
fff9
ff5f
0009
0000
003b
0001
001b
0012
ffff
0003
ffc0
0004
0012
0021
000b
0030
0006
0004
fffd
ffc9
0004
0000
0021
0003
0001
0024
0006
ffda
ffeb
000a
0003
0000
0000
ffef
000a
ff83
0000
004e
ffef
fffb
0033
0003
0011
ffe9
000b
0000
0001
0000
0007
0007
0004
0011
0001
ffa6
ffff
001f
ff93
0007
000a
fff4
ffff
fffb
ffbd
fffd
0012
0004
fffe
0002
ffd4
fffa
0009
ffed
0007
000c
fffd
fffa
fffa
0007
fffd
0007
fffe
ffd6
0012
0002
0004
0001
000d
0027
0016
000f
0008
ffff
0003
0003
000d
000f
0018
0056
ffc3
ffff
ffb7
fff8
fffd
ffef
000c
0011
0006
0001
0006
fff9
fff8
ffef
000c
fffb
fffd
ff78
0026
0018
0006
fffc
0001
000e
0006
fffd
0000
0023
fff5
ffff
0003
0000
0001
0006
0003
fffc
0011
fffe
0001
0001
fffa
000f
0012
0041
fffb
ffed
000a
ffcc
0008
0002
0012
fff1
0004
0004
0013
ffff
0014
0000
000a
fff1
fffd
001a
fff8
0002
0009
0020
fff3
ffe7
ffba
0006
000d
000c
0013
fffe
0034
0023
fffc
000b
0017
ff5b
0000
0024
ffdc
001a
0001
ffef
0003
002e
0005
000b
fff6
fffa
0004
0003
0007
0004
000e
ff81
0000
0012
ffe9
0033
000a
0003
0001
003d
000a
002d
0013
0002
0000
000c
0001
000c
0024
0009
fff4
ffff
fff2
ffff
0008
0009
0000
0002
0001
fffa
0003
fffc
000f
0003
0026
fff9
0012
ffff
0000
0016
ffb9
0002
0006
0010
fffe
0006
fffe
000e
fff8
0006
ffeb
000c
0000
ffeb
000f
000f
0014
002c
fff9
fffd
0001
ffeb
0006
ffea
001f
0016
001e
0007
fffe
0008
0011
0012
ffff
fffc
fff8
ffea
001c
fff8
fff2
fffc
fffe
0001
0007
ffc9
ffed
0016
0009
ffce
0000
0009
0004
0016
fffc
0003
ffc6
fff4
fffe
0030
ffff
0008
fffd
0007
0003
ffe0
ff7b
ffdf
0012
fffe
0005
0001
0003
ffd2
0006
000a
fff1
0005
0023
ffeb
0037
0000
0014
0005
0002
fff0
0028
0005
0000
0019
ffc9
003b
fff9
0000
0012
ffc1
ffff
0007
001a
fff1
0000
ffff
0001
ff99
ffea
ffbd
ffff
ffff
ffed
ffbd
fff2
0000
0000
ffcf
0000
ffff
ffd8
0000
0008
ffe8
fffa
0008
fffb
0018
ff6f
002e
fffa
0025
ffcd
0001
fff9
0005
0010
fff4
ffdf
0001
fff0
0007
0022
fffd
0002
0045
0032
000d
0003
0004
0005
0002
0004
0007
0012
ffff
0002
0003
ff71
000d
ffe3
0008
ffdd
ffc5
0004
000c
0003
000a
000a
000c
fff1
ffdc
000e
fff5
000e
0003
ffe0
0007
fff9
0005
001b
000c
fff3
ffe5
ffe7
0006
fff1
000d
0005
0003
fff5
0011
001a
0006
fff5
ffe7
0027
ffe3
0007
fffe
ffff
ffd8
0002
0012
0003
003c
0003
ffd7
fff7
0002
ffde
0000
0000
004a
fff7
fffc
0009
0005
fffc
0000
fffe
fff5
0044
0000
ffff
ffff
0022
fffc
0006
000c
0008
0002
0007
0025
000e
0024
ffda
fff7
ffdc
fff8
0002
0000
0013
0007
0004
0009
fff3
000c
ffd9
ffe9
fffb
0015
0002
0003
0049
0008
ff83
ffc5
0001
fffa
0016
000b
000b
0011
0001
0023
0006
ff94
002d
fffc
0000
ffff
0001
0001
ffe5
ffef
fff0
0006
ff9d
ffda
fff6
000f
001c
fff6
0007
0012
fff7
0010
000d
0001
fffa
0012
0004
000a
0010
0004
001c
002a
000a
ffc5
ffc3
0009
000d
0003
ffd3
ffbb
0024
0000
0008
0006
ff96
0000
0000
ffd2
ffe2
0003
ffe6
0017
0002
fffd
0001
0002
fff4
0002
0002
0001
0000
0004
0020
fffd
0005
0002
fffe
0019
ffff
0001
ffdd
fffe
001c
0001
001c
0003
0004
000d
0004
0034
0001
0008
ffe4
0001
ffff
ffff
0000
0000
0001
000f
fff0
ff85
ffa2
0003
0017
0000
0010
003f
fffa
fff6
0024
0005
ff79
0001
0002
0006
0001
ffee
000d
ffe5
0009
ffff
000a
0026
002a
0007
002a
fff2
fffa
ffff
0004
0008
ffff
0007
ffee
0011
0002
0006
0005
0001
0002
0002
0002
0003
0001
0003
0004
fffb
000b
000a
ffd1
0009
0006
ffe9
fffe
ffb2
0002
ffd5
000d
fffb
ffc0
ffd9
0008
ffc4
ffff
0002
000f
0017
0001
0002
0021
0012
0025
ffee
0011
ffeb
0004
0002
0000
0001
0003
0001
0049
000f
fff0
0008
ffff
0003
0003
0000
0002
fff5
0001
0002
0003
ff78
fff5
0006
0000
fffc
0006
ffff
fffc
003a
000d
0001
fffc
0008
0010
0000
0009
0001
0001
000a
0000
0013
000a
0001
0003
fff9
ffff
0031
ffc0
0002
ffff
ffff
ffd2
0003
ffff
001d
0002
ffff
ffd1
0000
ffed
002a
ff98
0010
ffff
0002
ffe9
fffb
fff6
0001
0001
ffea
0016
fffe
000c
0016
0009
0009
001d
000d
0010
0000
0017
000d
001f
0012
0000
0005
0000
0001
0001
0000
0016
0000
ffc5
fffb
ffcb
000b
0005
0004
0000
0004
0001
0000
fffd
0000
ffef
0002
ffff
0000
0001
0008
0003
0001
fffa
ffff
fffe
0004
0002
0005
0002
ffff
ffa4
ffde
0001
0019
0002
0001
fffb
000c
0001
0000
0001
0009
0001
fff6
000a
0001
fffb
0003
0007
0000
ffeb
0004
fff9
000d
fffd
0001
fffd
0000
0025
fffd
fff8
0005
0000
0011
0003
ffd8
ffff
0008
fff6
0001
0005
fffb
000f
0017
fffd
000d
fffe
000c
0006
ffd5
001e
0003
ffe5
0009
0000
0007
fff4
0002
0000
002b
fff0
0001
0002
fffa
ffca
ff7b
ffe3
fffe
ffdc
000a
fffb
0000
ffe5
0003
0051
0000
ff6d
ffec
0008
0003
fffe
0000
0004
0001
ffe8
001e
000c
001f
000c
0001
0002
0005
fff4
ff52
0004
0002
ffe2
fffe
0002
0007
fffe
ffba
0001
fff5
ffba
0001
0002
ffed
0002
0004
ffef
0033
0001
fffe
0004
fff2
ff79
0003
0001
000a
ffd0
0000
0000
0004
0033
0002
fffe
fff8
0000
0003
0002
fffb
fff8
000c
0000
0007
0001
0014
fff8
0001
ffff
ffff
000b
0006
ffdb
0000
0000
000e
0026
ffd0
fffa
0000
fff2
0008
0000
0001
0001
0005
002c
0003
001e
0001
ffe0
0016
001a
0004
fffb
000b
0003
0001
000f
0000
ffd2
ffff
0002
ffd5
0004
0008
0021
0045
0009
0001
0004
ffc0
ffcb
0034
002e
0011
000c
0001
0018
ffff
ffff
0001
ffee
0004
0003
ffb5
ff86
0000
fffc
fffb
0006
0018
fffa
fff9
0003
0004
0001
ffc4
0003
fff3
fffd
0000
fff2
0000
fffc
ffa6
0004
0005
0010
0043
0006
ffdb
0001
0008
0001
ff85
0001
0000
0001
0000
fff5
fffc
000c
ff82
fffe
0002
0003
003f
0001
0003
ffd9
0010
0010
0001
0022
002d
0001
fffe
fffc
0002
0001
0005
0001
fffc
0006
ffe2
001b
ffed
ffeb
0003
ffff
0008
000a
0004
0003
0006
0000
0011
0005
0004
0003
000d
000c
0001
ffac
0005
fff8
000e
0003
0003
0030
ffff
0006
0000
000d
0001
0009
0001
ffb5
0000
000a
002b
0004
ffdb
0001
fffd
fff5
0000
0001
ff78
0000
0002
0033
fff2
0001
001f
0001
000f
0000
0002
0003
003d
0000
0009
0006
ffe0
fff9
0000
0003
0000
000d
fff9
0031
fffe
0005
0047
0001
fff8
fffe
0030
fffb
ffe6
0003
ffd6
000f
0008
0009
0000
ff92
0003
0002
000b
fffc
0001
0000
fffe
0002
0006
0000
0038
0005
0000
0001
ffcf
0007
0003
0003
ffff
000e
fff1
fffb
0000
fff1
ffe9
0005
0025
ffeb
0020
fffa
ffff
ffd2
0001
0002
0000
fffd
0005
0011
fffe
0002
0001
ffef
0001
0003
0006
0002
fff0
0005
ffff
fff6
fff2
0000
000c
ffdd
0002
000c
0001
0003
0009
ffa5
0005
fff5
0000
ffe4
0002
001d
0013
fff9
0001
fff3
0003
0006
0001
ffef
ffda
ffc9
fffc
fffe
0012
fff8
fffd
0003
ffea
fff2
0003
0003
001f
0008
ffdd
0004
ffe5
0000
000f
ffbe
0005
0001
0016
0000
ffff
0003
fff0
0000
fff0
0011
000b
0000
fff7
ffda
0009
0001
ffc7
001e
0009
0036
0003
fffc
ffef
fffa
0005
ffea
ffff
fff0
000c
0013
0002
0000
ff9c
002b
ffee
0003
0006
0002
fffc
ff60
0008
fffe
0002
0002
ffed
0000
0006
0001
0001
0005
0001
0006
fffe
0009
0004
0009
0000
fff4
0001
ffb5
0003
001f
000e
0005
0003
0004
ffe9
fff3
0003
ffb1
0001
ffe4
ffcb
0000
0000
ffdf
0000
0007
fff0
0007
0031
000b
ffff
0003
0010
0005
0001
ffff
0003
0001
0030
0006
fff9
0002
0001
0000
0002
fffe
fff8
0027
002f
0002
0029
0000
0001
ffea
fffe
0006
fffa
0011
0003
fff9
fffe
0002
0000
0001
fff7
0000
ffec
0001
ffd5
001f
0001
0008
fffd
0001
fffc
0041
0005
0005
fff3
0008
ffff
ffef
0001
fffb
fff1
0005
0008
0004
ffff
fffc
002f
0000
0001
0003
fffa
000f
0001
fff3
0004
0004
0024
ffed
0003
0007
0013
0003
fffe
0002
0008
ffcf
0045
ff9d
0006
0054
0002
0000
0003
000a
fff8
0002
0000
0008
004f
0002
fffe
fff7
0002
fffb
ffd7
0000
ffa3
ffec
0001
0001
fff7
ffb6
fffd
0000
ffb5
0004
0001
0007
0002
0002
0005
0001
0004
0003
0001
0000
0003
0000
0012
001a
003f
0001
fffa
ffed
ffd6
0003
0001
004f
ffcd
0000
0001
001c
ffe0
0004
0000
0003
0011
0001
ffa9
0001
0002
0003
fffc
0001
0000
000b
0005
fffa
000a
fffb
0001
ffdf
0012
000a
0002
001b
0020
0000
0033
0028
0018
0001
000d
0004
ffc5
0005
0002
0037
0002
0003
0001
000e
ffd3
fff9
ffc6
0003
0013
ffee
002f
0000
0002
0001
0016
0005
ffdc
fffc
0000
0001
0000
0007
0005
ffd7
0011
fffe
0000
0006
0000
0008
ffd6
0008
0001
0000
0004
0008
0005
0004
ffff
0037
0006
0027
fff2
0002
fff8
ffdf
0004
0003
fff8
0014
0007
0000
0013
0005
ffff
ffd8
ffe3
0000
fffc
0006
ffdf
000a
0032
0000
0000
000b
ffe6
0006
0003
0012
ffeb
ffeb
0002
0001
0016
ffeb
0002
0001
fffe
fff4
fff8
ffdf
0002
ffff
0000
0001
0002
0007
000f
ffe4
0026
ffff
001a
0001
ffff
fff6
001d
0021
0002
0026
0005
fffb
002d
ffea
0003
ffff
0001
0004
fff1
0013
004c
0000
ffd8
0003
0000
ffff
000d
0002
0005
fffa
0003
ffd1
fffc
0022
0000
0000
0001
0002
fff3
001d
0006
0000
0009
0012
001e
0000
ffff
001d
0020
0001
0007
0009
0001
0002
0002
fffe
0003
ffee
ffc8
fff2
0002
001d
ffb0
fffb
ffff
0002
ffd4
0001
0001
ffce
0003
fff8
ffeb
0000
ffec
0005
ffee
0038
0033
fff7
0024
ffe8
fff6
0002
0000
ffeb
0006
0047
0006
ffe3
002b
fffb
0001
0001
ffd1
004c
0019
0001
0001
0005
0002
fff4
0005
ffdb
ffee
0002
0000
002d
0004
ffcf
000f
fffc
ffed
0009
000a
ffff
ffe9
fffa
fff4
0005
ffff
0013
0006
0004
0001
ffff
0005
fffb
0002
000f
0003
fffd
0009
0042
0007
fff3
0002
0000
0001
0004
fff9
ff98
0002
fffa
0008
0014
000a
0006
0000
0002
fffb
0004
0015
0005
ffff
ffff
fff1
0000
0001
ffef
0000
0000
0033
ffef
0001
0004
0005
0001
0000
0017
0028
0041
ffff
0001
ffff
ffc7
0002
0001
000c
0000
ffff
0004
ffdb
0010
ffe4
ffdf
0006
0040
0016
0010
0001
000c
0008
0006
0005
fffc
fffa
001b
fffd
fff9
000c
fffd
0005
fffc
fff4
000d
0020
0003
0001
ffca
0004
0007
fffe
ffff
ffda
fffc
ffe9
0023
fff8
fffd
0005
0002
0000
0010
ffcd
0022
000a
fff1
ffc7
fffb
fff7
fff3
000b
fff0
0029
001c
0004
0005
0002
0002
fff1
0004
ffea
0013
0005
0028
ffdc
0001
0020
0027
000d
0009
fffa
002f
ffb6
ffed
0002
fffb
ffff
ffae
0002
fffe
0009
0010
0003
ffaf
0011
fffe
0000
0005
0007
000e
000a
0000
0003
fff9
0002
ffc6
0009
0005
fff8
0005
ffdb
0014
0000
0017
0004
ff86
0005
fff2
0006
0004
fffc
0002
ffc0
0001
fffa
0010
0003
fffb
0000
0001
ffef
0001
fffa
0019
ff5d
ff7d
0014
0000
0000
001a
000f
0015
fff6
0022
0001
ffa7
fffc
0001
0001
0003
ffc4
0006
004b
fff4
0000
0006
ff44
ffe2
fff2
001c
000c
ffec
fffe
0014
ffdd
0008
0002
002b
0032
0004
ffec
000a
ffff
fff9
0003
fffa
ffeb
0001
0001
ffed
0001
0006
ffff
0024
fff8
fffd
0003
0019
002d
0001
0026
ffe8
fff4
0017
ffcd
0004
0040
fffe
fffe
000e
000a
0001
0004
0040
0031
000a
fff6
ffed
fff6
fff8
0003
0005
ffff
0005
0002
0028
fff4
0009
fff4
ffff
0006
0002
fffe
ffff
0001
fff1
fff2
0010
0035
0003
0009
0002
0009
000d
0003
0003
ffff
0007
0001
0004
fffb
0008
0001
000b
0003
0005
fff8
ffff
0012
0009
ffff
0008
0007
0006
0005
ffe2
fff2
002f
0000
001c
fffd
fffa
fff1
fff6
0002
003b
0002
001f
ffe5
ff7b
ffd5
0000
ffe2
0017
0003
fff9
0000
ffff
0010
000e
fffb
ffdd
ffd9
0007
0008
000c
0009
0008
ffff
0024
000e
ffeb
fff4
ffff
fff5
0006
0009
0024
fffe
ffe2
0000
0047
ffff
ffe2
fffb
fff2
0000
0002
0004
0001
ffff
0004
ffff
fffa
0004
0001
fff2
ffff
0006
0002
0003
ffee
0002
fff9
fff5
0003
fff8
0001
ffff
003d
ffff
fffc
ffde
fffe
0002
ffe4
0007
fffe
fff8
fffd
ffea
0001
fffe
0000
0000
ffef
fff7
0008
0000
0018
0008
0009
0008
0029
ffff
000e
ffff
0000
fff5
0018
000e
0001
fff9
fffb
ffd6
0000
0004
000d
0003
0007
0000
ffe7
0007
0005
fff5
ffe5
ffc8
0006
0005
fff0
0002
0009
ff7d
0001
ffde
ffe9
0002
0003
ffd3
fffd
ffff
0007
000e
0003
ffc8
0006
0004
ffd3
0000
0003
0001
0032
0007
ffbd
0004
ffbf
001d
0012
0013
0009
000a
fffb
0002
ffdf
ffd6
ffe3
ffdd
ffef
0000
fff6
0001
0003
0017
fffc
fff4
0017
0001
0017
001d
ffff
000c
0002
0005
fffc
ffd4
0002
001c
fffc
0006
0019
fff6
0000
0002
000a
002f
ffa6
0001
0003
0006
ffc7
0003
ffff
0008
000c
fffe
0007
0005
ffff
ffff
0001
0001
0016
0011
0016
000a
0002
fff4
003a
0000
0006
fff6
0005
0009
0023
fffc
0000
ffcb
ffdb
ffa2
fffe
0001
001e
fff1
0001
fff2
ffff
ffeb
0011
0004
0009
002a
0011
fffb
0019
001c
ff9e
000a
0002
fffe
fff3
ffff
0022
0035
fff9
ffcf
fffd
0003
ffeb
ffde
ffec
0004
0004
003e
0018
000c
ffbf
0000
fff7
ffff
0001
ffff
0008
ffff
0011
0005
003f
ffb0
fffc
0010
0012
0001
fffa
fffa
001c
0000
0005
0005
0006
0028
fffb
ffec
0000
0000
fff0
0000
0006
0021
0000
ffd7
fffd
ff8b
0009
fff1
0030
ffef
0002
fffb
ffde
fffe
fff4
000f
0007
fff5
001a
ffa0
ffff
fff9
0001
006a
0000
ffdf
ffd9
000c
ffea
0006
fffa
fffa
0002
0003
0003
0004
fffe
0008
fffd
ffe5
0009
001b
ffca
ffe6
0015
0002
0003
fffc
000e
fffa
001b
0017
0003
ffe6
ffe8
0014
0004
fff0
0005
0001
000e
fff0
0008
fffb
0006
0006
ff96
0001
fff7
fff4
fffd
fff9
0013
fff9
ffe5
fffc
0005
002b
ffff
ffce
ffff
0002
0015
fffd
fffd
ffe3
0002
0002
ffd1
0017
0001
000a
0004
000b
0003
fffe
fff7
fffd
fffb
fff5
fff9
0022
0002
ffff
000d
fff4
0008
fffc
ff77
0000
0003
000a
fffd
ffee
0004
ffe0
000b
0019
0002
ffff
0004
0028
0006
0000
ffc8
0005
0001
0007
0025
0000
0003
0000
0001
ffe9
0003
ffd5
ffe8
ffff
ffff
0023
000a
fffa
ffec
0000
001f
0016
0007
fffd
0012
0009
0006
ffe7
000c
fff3
0006
ffff
001d
fff0
ffec
0000
000a
ffff
ffca
0001
0003
0001
ff62
0000
0001
0009
0000
0023
fff9
0008
0025
000e
ffff
fff7
0008
000d
fffb
fffe
fffc
ffff
0026
ffff
0004
0001
0007
ffea
ffed
000c
ffff
0001
0005
0000
ffff
0001
0000
0033
ffd2
ffff
0000
ffcd
fff4
fffd
0003
ffff
fffc
000c
ffff
fff7
fffa
0020
ffd3
0017
0002
0014
0055
0005
0002
0003
0002
0001
0003
fffc
0000
001a
0005
fff3
0001
000c
ffee
000c
0022
0022
0027
0002
fff0
0007
fff2
ffdd
0010
ffd5
0017
000f
ffe5
0022
fffb
0001
0001
0029
002c
0015
fffb
0005
fff5
fff8
0013
ffef
0007
0004
0003
000c
fffe
fff1
0002
ffff
0007
0000
fff9
fff4
0004
fff8
ffee
0000
ffec
0002
0028
0002
002a
fff3
fff7
0000
0005
002a
fff8
0006
ffa6
0000
fffc
0066
ffff
0001
002d
fffe
0003
ffd0
0003
ffe6
0006
fffd
0002
fff6
0005
ffff
0018
fff0
0000
ffe2
0005
ffe7
fff4
fffe
0003
0008
0004
0011
fff8
ffff
0005
ff79
ffe7
0003
003c
fffd
fffa
0008
fff9
0005
0003
0002
0005
0001
0000
0010
fffe
fff7
0000
0031
fffb
ffe7
0003
001d
0000
ffd1
ffd4
0011
0000
fffb
0008
0001
fff7
0000
0004
0000
0003
fffe
0007
0004
0007
0018
0003
0001
0002
001a
000d
0000
000a
fff6
0000
0004
002a
fff4
fff6
ffe6
0000
0000
0013
0006
0023
ffc1
000a
0008
002a
0004
0003
0004
fffa
000b
0003
0000
0005
0028
0001
0003
0007
fffc
000b
ffc6
ff87
001a
fff9
0003
0002
000d
000c
0002
0003
001e
0005
0001
fffd
0003
0002
0003
fffe
0009
ffe2
0001
0002
0005
0002
0009
ffed
ffca
0003
0004
0029
003a
fffe
ffff
0055
001a
0004
0002
fff9
fffe
0000
0000
0001
0007
0003
0014
0006
0005
0001
0019
0007
fffc
fff2
0003
fffc
ffff
0009
0001
0034
ffff
fff1
fff9
fff2
ff84
0001
fff6
0022
000d
ffff
ffe9
0004
002d
0006
fffd
ffed
fffd
0003
fffb
0007
0004
0009
005e
0003
fff8
000e
ffe9
fff7
ffff
fffe
000b
fffb
0001
ffe4
0000
ffff
000b
0008
000c
003a
fff1
0019
0000
ffbe
0000
000a
ffe9
fffd
ffff
0003
0007
0007
0004
fffe
fffe
fff7
0018
ffe3
000e
0002
ffee
000e
0001
ffff
ffef
0011
0003
0001
000a
0000
0002
ffff
0012
ffeb
fffe
ffff
000a
ffff
fffe
fff9
0001
fff8
0000
0000
ffeb
0041
ffdc
001c
0001
0004
0009
0018
0005
ffff
0005
ffdc
ffee
002e
0000
0005
0004
0004
0003
fff9
ffd2
0015
ffe5
fffe
002e
0001
fff7
fffa
0043
fffa
0002
fff3
000b
0002
ffea
0016
fff6
0000
0000
0004
0006
001a
ffcf
0003
ff6c
0008
0000
0001
ffd8
0001
fff7
fff7
fffc
0013
0006
ffdd
0000
ffec
0002
0000
ffe6
0019
0004
0003
0008
ffd0
0014
0002
fff5
ffc4
0000
ffff
fffa
0019
0007
0002
0005
ffff
ffda
fff2
001e
fff6
0000
0017
001a
0017
0000
0003
0018
0002
ffff
0025
fff6
fff5
fffc
0000
0009
0000
fffc
003d
ffe9
0007
fffa
0010
fffe
0002
0000
001e
fff0
ff8d
000a
0014
ffee
fff7
0009
0001
ffd6
0000
ffeb
0001
ffff
000a
0001
000a
fffc
001e
fff4
0001
0001
ff91
fffa
0005
fff5
0008
0005
fff5
0007
0002
0012
ffe4
001d
fff5
000c
0003
fffb
fffa
fffe
0021
0005
0003
ffff
0005
fffd
0012
003d
0025
000b
ffed
ffe1
0001
0003
fffd
fff1
ff53
fff8
fff9
fff9
0017
ffe8
0008
0002
0009
fffd
000a
fff9
0004
0026
0000
0003
fffa
0000
002b
0002
0001
ffde
ffec
0003
0003
0004
0003
0000
ffdc
ffd3
0050
0001
fffe
0000
ffe5
fffc
fffe
0002
0014
fffd
0005
ffd0
000e
fff3
001d
0037
002a
001a
0025
fffe
ffba
0006
0006
0009
ffe9
fff3
fff4
ffe4
ffef
fffe
fffa
0006
0003
0001
ffa9
fff3
0003
0009
0020
0001
0006
ffe5
ffff
fff4
000b
ff9b
0026
ffef
0006
0009
0003
ffff
fffa
ffee
001b
0009
0027
ffce
0005
0000
fff5
0001
ffed
ffa6
0022
0001
000b
0002
0005
fffc
0005
ffdc
0012
fff4
0022
ffde
000e
ffee
000a
0004
0004
0000
0009
000b
fff6
0000
fff1
fffd
0041
0003
fffd
ffff
fff7
0004
ffe2
0003
ffff
fffb
0006
0005
0005
fffd
0003
ffff
fffe
0005
ffe6
ffff
ffff
fffc
0002
ffb6
000f
fffc
fffd
0001
ffcc
0015
000d
0009
ffec
0014
fffa
ffc8
fffd
fff5
0017
0001
0001
0002
0003
0011
fffd
fffc
0015
0016
fffa
0002
ffe9
fffb
fffb
002f
0010
0002
0014
ffff
0036
0008
ffff
0004
fffc
0001
0000
ff84
ffed
fffe
0001
0034
000e
004f
002e
ffea
ffd6
0001
0012
ffda
0004
0006
000a
fffd
0005
fff4
0015
fffe
fff6
fffd
fffa
fff4
fffe
0002
ffd2
fffc
0009
fff6
0011
fffc
fffc
0015
0020
ff88
fffe
fff9
ffde
ffe5
fff9
fff3
000e
fff7
fff5
0001
000f
0046
0000
ffff
ffc3
0009
fff7
0007
0010
000f
fffb
0003
0002
0000
0008
fffe
004e
000a
0007
fffd
ffff
0003
fffe
0001
0001
0002
0005
fff7
fff6
002b
0008
000c
0002
0002
fff7
fffc
ffea
fffa
0004
ffff
fffc
0005
ffe8
0004
0003
ffff
ffcb
fffd
000d
001d
0005
ffff
0008
0001
000b
0033
000b
0001
0021
fffd
ffef
fff6
0002
fff9
fffe
ffff
fffc
fffe
0010
fff6
0037
0000
fffd
0024
0001
ffff
ffe9
fffe
0001
0002
000a
0004
ffe9
ffeb
0005
0005
0025
0011
0000
0000
004d
001a
0000
0011
ffff
ffe3
0001
0000
0028
0003
0008
0005
001d
fff3
fffc
fff3
0010
000b
fffc
0003
fffb
0000
0003
0002
0010
0005
0000
0005
0000
0005
0002
0000
ffef
0001
0002
ffe4
0002
001b
0000
fffe
ffd0
0008
fff5
ffa2
0006
0000
0027
fffe
0003
0022
fff8
0004
fffc
ffed
0006
0002
0043
fff9
0012
0001
ff86
0018
0002
0009
0010
0000
0004
0003
0022
0009
0008
ffed
fffa
000b
fff9
ffff
ffff
0008
0010
0007
fff0
0001
fff0
001c
0003
0001
ff77
ffab
0008
ffe7
0007
ffff
0016
0031
ffff
ffe0
0001
0003
0006
fffe
0007
0000
0009
000d
000b
0019
0013
fffd
ffb8
fff9
fff5
fffd
0011
000d
ffe5
0000
0029
ffff
0017
0008
fff1
0001
fff9
0003
fff3
ff70
fffa
0000
0003
0000
fff3
000a
fff1
ffdf
0011
ffea
0009
fffc
0006
0024
ffff
000f
ffff
ffee
fffd
ffd2
0008
0012
fff7
0009
0015
0005
fffd
0013
0001
0035
ffcd
0000
0000
000e
0024
0001
0000
0004
000d
ffff
0008
0006
0000
fffb
0005
fffb
002b
0014
ffc7
ffe9
0001
0003
fff6
fffe
0004
fffd
0002
000f
0010
001f
0001
0000
000c
002f
ffeb
0001
0026
ffe8
0001
0011
fffd
0003
ffb0
0002
fffd
0019
ffeb
fff4
fffb
0019
0025
000b
fff7
0000
fffa
fff5
fff7
0004
fffa
ffd4
000d
0006
fff4
0025
0022
0001
0005
fff4
0006
0018
ffc1
ffee
0025
0003
ffca
0001
0005
ffff
ffbf
fffb
001d
000d
0016
001d
0007
fff9
0006
0000
0009
fffd
0002
0003
fff8
0005
0004
0013
000a
ffff
000b
0001
0002
0016
0008
fff4
0006
ff96
0005
000f
ffd9
fffb
fffe
0029
ffcf
fffc
ffe8
0007
0003
fff6
0018
0015
fffc
fff2
0004
ffe6
0002
0003
ffd4
0006
0013
0004
0001
002f
0002
0001
fff6
0000
ffff
0021
fff2
ff72
000c
0014
002d
fff9
fffc
0001
ffff
fffe
000e
0004
001a
0045
0003
0004
ffd9
001d
000c
ffed
0005
0005
001d
ffe4
0004
0003
0008
0005
0028
0000
fffa
fff3
0021
fffe
000d
fffe
002e
fffd
fffe
004a
fffa
fffd
0000
fff9
ffe2
0003
0001
000b
0002
0001
0005
fffc
0002
0021
fffe
0003
fffe
fff7
ffe9
0046
fffd
0014
0005
0009
fffe
ffff
0027
0027
0005
fff7
0031
fff9
0005
000d
fffd
ffe3
0003
0052
0000
0004
0001
ffdd
0014
0026
0002
fffc
000a
0015
0007
ffff
ffec
0004
0008
fffb
0002
0002
0004
0012
ffdf
0001
ffff
0015
001b
fffd
0002
000e
ffc1
ffee
0002
fffc
0025
0003
fff8
0013
fff8
fff7
ffff
ffff
000c
ffe7
fff4
0000
000a
fffb
0031
fffe
0003
fff6
0030
fffa
0004
0009
0001
001a
000b
000a
001e
0001
0005
0003
fffb
0008
000e
fff9
fffc
fff9
0046
fff7
0000
0005
000c
ffdb
0004
0003
ff80
fffe
fffa
0001
fff8
ffff
fff1
ffec
ffaa
000b
fff9
ffdf
fffb
fff3
0005
ffff
fff5
0014
0004
002f
0005
0011
000c
ffc3
0000
0012
ff83
000c
0003
001a
0000
ffff
0004
fff3
ffff
0006
0000
fff5
ffff
0007
ffef
0003
0022
ffce
ffe3
fffa
0018
0008
0004
ffd6
0018
ffd1
000b
fff3
ffed
0035
0037
fffe
0001
0015
ff85
fff1
fffa
0007
ffed
0007
ff7e
ffe4
fff9
0008
0004
fffa
0005
0001
0002
0000
000a
0000
0001
ffe7
fff3
ffe1
ffe0
0002
fff9
ffff
0013
0003
0038
0000
0001
fff6
0007
ff56
fff3
ffff
0028
ffff
ff84
ff7b
fff8
0001
ff6d
0002
000d
fff4
0003
0016
fffe
fffc
0000
ffe7
0007
ffff
000e
ffff
ffff
000f
0006
fffe
fff8
0005
0005
0003
ffff
0011
0007
ff7c
001a
ffe7
ffb0
ffff
ff98
ffff
fff8
fffa
0011
0002
ffe9
fffc
0002
fffb
0001
fff5
ffff
002b
0001
0007
0007
ffe5
000d
0016
ffff
0003
ffdd
0013
0000
fff1
0004
fffe
ffe3
fffe
fffc
ffff
0003
fffc
0007
0000
0004
ffd2
fffc
0002
0001
0015
0006
0000
fffd
0002
fff4
0028
0006
ffde
fffb
000c
0002
fffe
0010
ffff
ff77
000a
ff68
0005
ffb1
0007
ffff
0026
fff1
000a
0003
fffb
0015
003e
fffd
fffb
000e
000b
fffe
ff8d
001c
ffd0
fff0
fffe
0002
fff7
fff2
0000
fffb
ffe4
001d
0001
0004
fffc
0005
0005
ffff
0008
ffff
fffd
0001
0006
0008
0003
000f
ffea
fffe
fffd
0007
0034
001a
ffff
ffb4
ffe3
0002
0006
ffe9
0003
fff3
0000
fffd
002f
fffc
0017
fffb
ffff
0001
0029
0006
fff9
ff70
fffa
0016
000a
ffeb
fffc
003b
ffdb
0007
0012
ffdc
ff73
0001
ffff
0009
001f
ffff
0015
0005
ffe5
0003
fff3
ffc8
fffb
0004
ffff
fffa
ffd8
0006
0059
0002
000a
0015
0015
fffe
0000
fffe
ffdd
0010
fff5
fffb
ffff
fffe
ffed
0009
fff6
000f
0000
0011
0000
0014
fffd
fff1
002b
fff4
fffb
0004
000b
0003
000d
fff4
0004
0004
0017
000a
0004
0000
ffde
ffe7
0014
ffff
ffed
0001
0003
0000
0005
fff5
0001
0020
fffe
ffee
fff7
fffe
0028
0005
0016
fff7
fffe
fffe
ffe9
0004
fff9
0003
ffe8
001a
0004
fffd
ffcf
000e
000e
ffff
0002
ffbb
001b
001f
fffe
0000
ffff
0005
fffc
fffc
ffe9
ffff
000e
0002
0022
0001
fff2
fff4
fff4
003b
0002
003d
0008
fff9
001d
ffe6
ff97
fffc
ffff
0008
0001
ff68
0034
fff3
fff5
0008
0000
0001
ffdf
0002
fff3
fffd
ffff
0027
000d
ffff
ffff
ffd9
0003
fffd
0023
000a
0004
0000
0000
ffee
002e
fffe
ffed
002c
0034
ffff
fff9
fff8
000b
fffe
000b
fffb
ffe5
fffc
ff7a
0010
0001
ffcc
ffef
0000
0000
0008
000e
0003
fffd
000f
fff3
ffe4
0015
0001
ffec
0013
fff2
ffe0
0020
0007
000e
fff9
fff8
000b
ffff
fff7
fffa
ffef
0005
0024
0016
fff5
0006
0002
ffc6
003d
0001
fffd
fffc
0006
0001
ffff
000a
fff3
ffe5
0001
0000
ff89
000e
fffa
0017
0032
fff7
fff6
fffc
ffff
0000
ffe8
0025
fffa
0008
fffe
0000
fff6
0008
ffed
0009
fffe
fffb
0011
fff5
000d
ffc7
ff7f
ffff
ffe2
ff84
ffff
0006
0000
fff1
0023
fff9
ffea
fff8
ffe0
ffe4
0009
0001
000e
ffe6
fffd
fff3
0002
ff74
ffff
0012
0005
ffff
ffbc
0001
fffd
000b
fff6
0000
0002
0002
fffe
0002
ffeb
fff9
002c
0000
ffff
ffff
ffb1
0004
0002
fffa
0012
fff9
0001
ffdb
000f
ffcf
0015
fffa
fffc
ffe4
000e
fffe
fff8
fffa
fffa
0001
ffea
0019
0040
ffe6
fff5
0009
000c
fffd
0045
0004
ff8f
0000
fffd
