1000
1001
1002
1003
1004
1005
1006
1007
1008
1009
100A
100B
100C
100D
100E
100F
1010
1011
1012
1013
1014
1015
1016
1017
1018
1019
101A
101B
101C
101D
101E
101F
1020
1021
1022
1023
1024
1025
1026
1027
1028
1029
102A
102B
102C
102D
102E
102F
1030
1031
1032
1033
1034
1035
1036
1037
1038
1039
103A
103B
103C
103D
103E
103F
1040
1041
1042
1043
1044
1045
1046
1047
1048
1049
104A
104B
104C
104D
104E
104F
1050
1051
1052
1053
1054
1055
1056
1057
1058
1059
105A
105B
105C
105D
105E
105F
1060
1061
1062
1063
1064
1065
1066
1067
1068
1069
106A
106B
106C
106D
106E
106F
1070
1071
1072
1073
1074
1075
1076
1077
1078
1079
107A
107B
107C
107D
107E
107F
1080
1081
1082
1083
1084
1085
1086
1087
1088
1089
108A
108B
108C
108D
108E
108F
