2000
2001
2002
2003
2004
2005
2006
2007
2008
2009
200A
200B
200C
200D
200E
200F
2010
2011
2012
2013
2014
2015
2016
2017
2018
2019
201A
201B
201C
201D
201E
201F
2020
2021
2022
2023
2024
2025
2026
2027
2028
2029
202A
202B
202C
202D
202E
202F
2030
2031
2032
2033
2034
2035
2036
2037
2038
2039
203A
203B
203C
203D
203E
203F
2040
2041
2042
2043
2044
2045
2046
2047
2048
2049
204A
204B
204C
204D
204E
204F
2050
2051
2052
2053
2054
2055
2056
2057
2058
2059
205A
205B
205C
205D
205E
205F
2060
2061
2062
2063
2064
2065
2066
2067
2068
2069
206A
206B
206C
206D
206E
206F
2070
2071
2072
2073
2074
2075
2076
2077
2078
2079
207A
207B
207C
207D
207E
207F
2080
2081
2082
2083
2084
2085
2086
2087
2088
2089
208A
208B
208C
208D
208E
208F
