ffec
ff9b
ffca
ffd7
ffde
0004
ffea
ffd9
fff7
ffd9
fffe
ffd7
ffc7
fff0
ffe0
ffea
fff0
ffd6
ffd1
fff5
0003
ffd6
ffa7
fff9
fffa
ffd9
fff5
fff1
000b
fff2
ffd5
ffd1
ffd6
ff9c
ffef
ff98
ffe1
0046
0027
fffb
ffda
0003
002f
ffee
ffd0
ffe9
003c
ffc6
fff5
0003
ffd1
0012
ffeb
ffea
ffe8
ffff
0031
ffe5
ffcc
ffce
ffd8
ffb8
fff6
ffd5
fff3
ffc0
ffe0
fff1
ffcd
ffdf
ffeb
ffe9
0017
0000
ffc2
ffdd
ffd6
ffdc
0024
ffee
ffb8
ffe2
ffca
0005
0033
000d
ffd6
ffe6
0003
ffd7
ffb1
0002
ffd2
fff6
ffcc
0006
ffff
fff8
fff4
ffdc
ffe0
ffdd
0006
fff2
ffb7
ffe9
ffff
ffd9
ffda
ffeb
ffed
ffc1
0008
ffda
ffe8
ffb7
003c
ffea
ffeb
ffe3
ffe6
ffe0
fff1
ffff
fff2
ffba
ffeb
ffdd
ffa7
0000
fffc
ffe7
ffea
ffcf
ffe0
ffde
ffd2
0003
ffef
fff3
ffa2
fffe
0001
fff2
0006
ffda
ffce
fff4
ffe1
ffe2
ffec
ffd9
0010
fffd
0001
ffe7
ffe5
ffb2
000a
ffe9
ff82
0004
fff4
ffeb
ffd8
ffa9
ffe5
ffdf
0010
ffe0
ffb8
ffd7
002e
ffe6
ffe4
fff3
ffc3
ff9a
fff9
ffff
ffd2
ffe4
0005
fff6
ffd6
ff98
ffb6
0007
ffe9
ffd4
fff6
ffe5
ffea
0004
0003
000d
ffcb
0000
ffcd
0002
ffe3
ffd5
ffca
0000
ffdb
0033
fff3
ffdb
ffe2
ffdd
ffee
ffa4
000b
0009
ffda
ffbd
ffd9
ffd5
0000
ffea
ffc0
ffe5
ff99
ffee
ffd0
ffcd
ffc4
ffe9
ffde
fff4
fff4
ffd3
fffa
ffc5
0009
ffe6
fff1
ffc1
0000
fff3
ffea
ffc8
001c
ffde
ffff
fff5
fffe
ffe2
ffd5
0011
ffda
ffc6
0002
fffa
000c
fff2
ffe9
ffdb
fff6
ffdf
002b
ffc8
ffe1
ffe2
ffbd
ffe6
ffcd
0004
ffe5
fffb
ffe8
fffb
ffdc
ffde
ff9a
ffdb
ffda
0007
fffe
0001
0026
fffe
fff2
ffbe
ffe3
ffc2
ffee
0043
fffc
ffef
fffb
ffe9
ff85
ffe3
ffe5
ffdb
ffd6
ffe0
ffcd
ffe9
001e
fff5
ffbc
ffc3
ffc9
ffe3
ffef
001d
000c
ffe3
0040
ffdb
ffde
ffde
0032
0004
0007
ffb7
ffdc
fff1
ffd8
ffc3
ffe0
001f
ffd8
ffe9
fff3
ffd5
ffe5
ffee
ffec
fff2
fff8
ffed
0004
ffef
ffd6
fff2
ffca
ffe3
ffde
fffd
fff2
ffe2
ffeb
0009
ffd0
ffd0
fffc
ffcf
ffce
ffe5
0006
ffee
ffdb
0046
fff2
ffd5
fffb
fffe
ffed
ff83
ffe3
ffef
ffe7
ffd1
ffe1
ffc5
ffdc
fff0
ffe1
001e
ffec
ffdf
0000
0000
ffe8
ffd2
ffda
ffe8
ffdd
ffd2
fff9
ffd9
fff0
fff2
ffde
ffd4
ffc2
000a
ffcf
ffe6
ffe1
ffcd
fffd
ffdc
fffd
003d
ffff
001c
ffdd
000e
0004
fff1
ffe6
000d
ffef
ffe2
ffdd
ffb6
ffea
ffe7
ffe2
ffca
0004
000b
0014
fff4
ffd8
ffb6
ffe1
ffec
ffb7
ffb2
ffbd
ffdd
ffe2
ffea
fff0
0003
0002
fff3
ffc1
0020
0000
0033
ffec
0021
000c
ffbe
fff5
0009
ffdd
ffe8
0005
ffc3
ffe5
0033
0002
ff94
ffdb
0006
ffc6
ffd3
fffb
0006
0006
ffda
ffd6
ffe5
ffe8
ffd6
ffeb
0008
0001
ffbd
0005
fff6
fffa
0006
0015
fffd
ffd5
ffea
ffeb
0014
ffe4
0004
ffb2
ffcf
0019
ffcf
ffeb
000c
000c
ffd4
0000
ffc6
fffc
ffdf
ffd2
fffe
fff7
ffdb
000a
ffd1
0012
ffd9
ffe2
0002
ff9a
ffee
0019
fffd
0007
ffe9
ffbf
ffe8
001d
fff3
ffe7
ffbe
ffb7
ffe1
fff0
ffea
ffe3
ffdf
fff9
0037
ffa2
ffe2
fffa
001e
ffe2
ffd9
ffe6
000d
ffed
0027
fff0
fffa
ffd9
ffd7
0006
001a
003c
fffc
0024
0014
ffec
fff4
ffd7
ffce
0001
0015
fff6
fff6
fff9
ffdd
fff6
ffe8
0002
ffe3
0012
ffc7
0000
ffd2
ffde
ffee
000c
fff9
fffa
ffed
0020
0012
ffec
ffff
fff3
ffec
0001
ffb2
ffe9
ffc1
fff5
000c
000f
006f
0045
0056
ff85
0000
ff42
fff5
0041
0023
0011
ffe5
ffdc
fff2
fff9
fffc
ffdb
002a
0068
001b
0005
001b
ffd5
ffe5
0001
ffec
0003
ffe1
001b
0009
003e
ffe8
fff0
fffa
ffff
0071
ff69
ffda
ffdc
0005
003e
ffeb
fffe
ffed
001b
004d
ffe6
000d
000f
0004
002b
ffe9
000d
000a
ff7b
0001
ffdb
fffe
fff0
000e
0016
ffd7
000b
0027
fff1
0053
ffd5
000d
004b
ff6b
0015
ffee
ffff
000a
0002
ff7f
ff66
0027
0010
000d
0021
ffff
0008
fffb
ffc0
ffcf
ffe5
ffce
ffe9
fff3
0006
0005
0039
0004
ffff
0017
0019
0009
001a
001a
000d
ff66
ffdf
0014
007f
0009
0018
ff75
ffe3
0006
ffeb
0004
000d
ff71
ffea
0015
0002
0009
ff71
0007
0021
ff99
001a
0014
fff4
001d
0010
ffa2
0023
000e
0001
0002
ffea
ff94
ffdf
005a
0009
0001
fffe
0020
0046
0009
ffe8
0022
fffc
0045
0007
fffb
001c
fff5
fff3
ff8a
0001
0016
0016
ff78
001f
000a
fff9
ffff
fffa
ffd6
ffeb
ffd8
ffe8
000f
ff71
001e
fff9
ff89
0056
fff0
ffec
ffc8
fffc
ffe7
ffe2
0011
0009
000a
fff3
ffe4
ffea
0040
0019
fff9
fffd
0009
0009
0009
ffed
fffc
0023
0027
ffc6
fffd
001d
ffec
ffef
fff7
0016
ffdd
ffe7
ffe6
ff80
ffe1
ffab
003e
ff4a
ffe6
ffd6
0044
0019
0014
ff78
001e
ffb0
0002
000a
0006
002d
0017
ffe8
0009
0012
0035
0035
0009
ff95
ffeb
ffe4
ffe8
0045
ffeb
0005
0003
0007
ffdf
001f
001c
ffa4
fff7
ffcc
ff91
fff2
002b
ffdb
ffb8
0026
ffee
0038
0030
001c
0002
ffe3
0018
003e
0000
000c
ff83
ffcc
ffad
fff7
ffea
0000
001a
0004
ffb4
fff8
001c
fff9
fffd
000b
ff9c
0000
000a
fff9
0011
0017
0009
ffed
0016
ffe3
0037
ff9a
ffe7
ffd4
ffcf
0014
fff3
000a
000b
0039
ff94
0038
ffca
ffe4
ff4b
0002
ff86
ffe9
000f
004a
fff8
0015
ff7d
002f
0003
0002
ffdb
fff5
000d
002d
0006
0016
ffd6
0015
fff5
fff8
004f
ffbf
fff7
0041
fff0
ff8b
0018
0011
001e
ff58
ffef
0003
fffd
ffef
001d
0012
fff9
ff79
002e
ffed
ffdd
ff7b
0013
0022
ff72
002f
ffdd
0019
fff6
ffed
fff4
0015
001a
fff1
0035
002b
ffde
000f
ffde
fff5
0002
0008
ffe8
006b
fff5
0017
ffb5
ffaa
0025
000a
ffe2
ff40
0009
fffe
ffe7
0028
fff5
ffe3
ff9d
fff0
0006
ff5e
000a
0036
ff62
0010
000c
ff6e
0023
0003
000c
0022
000f
fff8
0004
ffd3
000b
ffd6
001c
000d
0017
0008
ffea
fff6
ffd3
0006
fff7
0008
0002
ffe8
000e
0011
ffe8
001a
004a
ffee
0011
ffbc
ffed
fffe
007f
ffdc
fff4
002a
000d
fff5
0032
ffb5
0003
0006
0002
0000
0025
0011
ffd7
ffd9
ffd0
002e
fff6
ffe1
0016
fff8
fff5
ffe1
0027
ffef
ffe2
0027
ffeb
fff3
001d
ffb8
0018
fff7
0060
0006
ffe7
ffef
0025
fffa
0029
0005
000d
fffd
0007
ffd7
ffec
0006
fffe
ffe1
fff6
ffe8
0007
ffdb
0008
fff5
ffc6
ffdf
0015
000e
fffc
fffc
fff3
ffa2
000a
ffee
fffc
002c
0012
0018
ffea
fff9
ffcb
0011
ff87
0003
ffe6
ffe3
ffef
ff6e
fff3
0074
fffb
fff2
fffe
ffef
ffeb
0034
fff4
ffde
0001
fff7
ffff
0021
fff4
001e
fff9
fff3
ff87
ffed
ffdd
fff7
ff67
ffe9
000c
fff2
ffff
ffc9
0003
0034
ffe3
fffe
0046
ff9d
fff4
fffd
fff7
0002
0054
ffe2
0013
0008
0009
fff4
ffea
0014
0002
0019
0002
fffa
ff78
0012
0009
0019
0041
0014
ff70
002e
0002
ffeb
0046
0006
000a
ffed
001c
ffe0
fff8
0000
0001
000a
ffe8
ffe4
004c
ffe8
ffec
000e
0010
fff9
ffd9
fff4
ffe3
ffae
fff0
ffb2
fff9
fff9
ffd4
0011
ffc1
ffd7
ffef
fff6
fff3
ffcd
ffd8
ffed
fff3
0007
fff3
ffaa
0008
fff5
ffe1
0002
000e
0033
fff5
000b
ffda
ffcf
ffca
ffe9
ffc4
ffb4
0023
001e
0004
ffe7
0006
0045
000b
ffd1
000d
0037
ffe2
000e
0006
ffe3
ffe0
fffb
ffe6
ffc0
0013
001f
0004
ffba
fff7
fffa
ffdf
0014
0002
000b
ffc3
ffc9
0012
ffc8
ffb1
ffef
fffd
001d
fff8
ffe1
ffa8
ffa8
ffda
002f
ffe6
ffd5
000a
ffea
0001
0034
0029
ffbe
ffcb
000c
0002
ffd6
0007
0000
fff4
fffc
fff2
0012
0026
ffff
0009
ffcc
ffae
000d
fffd
ffdc
001e
000a
ffa8
ffc1
ffeb
ffeb
ffe3
fffa
ffae
fffc
ffcf
000f
ffc0
ffbf
ffeb
fffa
ffbc
ffe2
0003
ffdb
ffb6
fff5
ffb2
ffd9
0001
000e
fffb
001d
ffac
ffe0
ffd8
0010
fff8
0006
ffcc
ffac
0013
ffe1
0005
0002
001b
ffe8
fff1
ffdb
ffd2
ffe5
ffb3
fffe
ffeb
fff7
ffad
ffee
ffd6
0001
ffe2
ff6e
fffa
ffdb
ffc8
000e
ffc1
ffbb
ffea
fff8
ffb7
fff2
ffc6
0021
ffc8
ffcf
ffd4
ffed
ffc3
fffe
000c
fff9
ffee
0015
000f
ffca
ffaa
ffc6
002e
0004
fffd
0005
ffd8
000e
000a
0017
000b
fff2
fff6
0003
001f
fff8
ffb0
ffce
fff5
ffb1
0023
fffe
ffff
ffb2
ffea
ffcf
ffd0
002d
000e
ffb1
ffd7
ffb5
ffad
fff5
0007
ffd6
ffdd
ffd6
fff7
fff7
ffdf
ffc5
ffef
ffbc
0002
003e
ffc1
fffe
ffa8
0006
ffe2
fffd
ffae
000b
0023
ffc5
ffe0
fff4
ffb0
ffce
fff1
000e
ffd9
ffed
001f
ffd0
ffcc
ffd9
ffff
0002
fffb
ffd8
ffe0
000c
ffb1
0027
ffb8
ffe0
ffdb
ffde
fff9
ffdf
002c
ffdc
0016
000a
000b
001e
ffb0
ffb8
fff8
fff2
0009
000c
0003
0026
ffda
ffe7
ffea
ffb9
ff8c
ffc8
0036
fff3
ffe9
0014
0001
ffbc
ffb7
ffe8
ffbc
ffd6
ffaf
ffee
ffc0
0036
0027
ffd6
ffcc
ffc8
ffb5
0005
0000
fffc
ffff
0012
0017
ffd9
ffd9
0033
fff2
fff6
ffb9
ffef
0022
ffba
ffd0
ffcf
0017
ffac
000a
002f
ffd5
ffb3
fff5
0001
fff5
fff2
ffe1
0010
fffc
ffad
ffe8
ffc0
ffc6
ffab
0009
0024
ffb7
fffe
fffa
ffe6
ffeb
0004
ffb3
ffe2
ffcc
0027
0000
000a
002b
fffe
ffcc
fff0
0002
fffa
ff9a
fffa
ffe8
fff0
ffaf
ffb9
ffd7
ffea
ffe8
ffb0
003d
ffcf
ffc1
fffc
ffed
fffa
ffaa
ffbf
0002
ffad
fff0
0011
ffa5
ffe1
fff7
ffaf
ffe4
ffbd
ffe7
ffff
fff0
0003
ffce
0013
ffed
000c
0040
0005
000d
fff6
ffd2
0022
fffc
ffcf
0029
fff9
ffdf
0003
ffc6
fff9
002a
ffe8
ffca
ffc9
ffd3
fff6
000d
fff4
ffe2
000f
fffb
ffe3
ffe6
ffb2
fff5
ffb6
ffed
fffc
fff3
0016
fff7
fff5
0013
0014
0013
0003
0035
002f
ffcc
fff1
0003
ffd7
0009
000d
ffd1
ffdb
0024
000b
ff90
ffc3
001f
ffe3
fff1
0038
0021
ffe4
fffa
ffcc
000a
fffe
ffba
ffc9
000c
0015
ffc9
fff7
ffde
0022
fff2
002d
0000
0013
000e
0006
002c
ffd2
0007
ff81
ffd8
0024
fff3
ffd5
0025
0020
ffbd
002e
ffb5
fff6
fffd
ffe0
ffed
0027
ffad
fff4
fffb
0019
ffec
ffbb
ffcb
ffe7
fff1
002e
0008
0008
ffe7
ffe1
ffeb
0021
ffeb
0005
ffef
ffda
ffee
fff3
0012
ffe3
ffaf
0008
0043
ff9c
ffae
0008
ffee
ffd7
000f
001e
fff6
0010
0044
0003
fffd
ffb2
000d
ffea
001b
0033
0007
004f
0018
001b
ffee
fffd
ffeb
000f
0020
fff8
0003
ffe6
ffb3
0006
0011
0002
0000
fffe
ffa6
001c
ffea
ffd7
0018
fffe
ffda
003d
0008
0024
0018
0005
fffa
fff2
ffff
0007
ffe7
fff4
fff8
0004
001a
0014
ffd1
ffff
ffe9
ff9f
ffda
ffab
0010
ffe4
ffd9
fff3
ff82
0011
0027
ffea
ffff
fffa
0000
ffe5
0024
001f
002c
ffe9
ffef
fff2
ffe7
0008
fff8
0003
0008
fff5
001c
ffe5
0011
0011
ffbe
ffa5
ffe6
ffdb
fff7
ffa4
0024
ffc8
fff7
fff5
ffe7
ffee
0007
ffd9
0011
0003
000e
fff8
0036
ffa0
ffe8
ffee
0003
ffe0
ffdd
0008
000f
fffa
ffd0
ffd9
ffda
ff92
ffe3
ffd3
ff9a
0018
0019
ffd1
0025
004f
ffa4
ffa4
fffc
ffce
0004
001e
ffd4
0005
001f
0004
0010
0012
ffb3
ffed
0026
0009
0011
ffe0
0020
fffe
0011
0008
ffdc
001e
ffec
000b
ff9c
000e
0010
ffb4
ffe4
ffd0
ff9f
ffdd
ffef
ffdd
002c
0015
ff9c
fffb
fff1
fffc
0023
ffad
fff8
0018
ff99
0000
0008
ffb6
0002
0001
ffa9
fff9
0028
ffc4
fffc
000c
ff98
0049
ffa4
0001
0003
fff5
ffe9
001b
ffea
0015
0008
0009
ffc0
ffed
002d
0004
003c
fffa
ffa2
0006
fff3
000c
ffa7
fffe
0005
fff0
001f
fffa
ffe2
0022
ffbd
0005
0015
ffa7
001b
fff4
ffaf
ffa8
0013
fff5
ffbd
fff0
ffdb
0012
ffc6
001e
0019
0014
0020
001e
ffd8
fffd
0040
0021
fff7
000c
ffda
000b
ffeb
ffcf
ffdd
fffd
ffec
ffef
0018
0008
ffee
0003
ff9c
0005
0017
ffad
ffe3
fff5
ffe1
ffa2
001f
ffb5
002f
0000
0007
ffa0
ffdb
ffaa
0031
001c
fff4
0014
0008
004b
001e
fff4
0006
000a
0000
ff9c
000b
ffea
0014
fff7
0005
0006
0015
001f
ffae
0006
ffe6
ffac
0009
0003
ff96
ffd9
0012
0028
000f
ffe5
fffc
0019
000a
0018
0012
ffde
fff9
ffe6
ffd0
0021
ffa0
001e
ff99
0027
0017
0030
fff2
0004
0006
000e
ffde
fffa
ffad
ffdd
ff9b
0042
0003
0008
0000
ffeb
000b
ffe4
001b
fff1
ffea
ffa3
ffc4
0021
ffdd
001e
0003
ffe6
fff9
0009
ffa5
ffe2
ffb8
ffec
ffa1
001f
ffa4
ffdc
ffbb
ffdd
0049
ffc3
ff9d
fff9
fffc
0027
fff6
ffde
ffd9
0005
001e
ffe0
0002
ffdf
fff4
0010
ffd9
ffa9
0032
ffe5
001d
ff9b
ffdd
ffe0
ffd5
ffaf
0015
ffd3
0025
003b
0011
001c
fff3
ff98
0027
ffe6
0031
ffa0
0000
ffdd
ffa1
0006
003c
ffe2
001e
0013
003a
000c
001c
ffec
0004
ffdf
ffd7
0019
001c
0010
ffe1
0026
0023
ffc2
fff7
0016
ff9d
ff9d
ffff
0023
0006
ff9b
ffcf
000a
fff1
ffc4
0019
fff3
ffaf
ffb3
0024
ffa3
ffdc
ffd9
ffa0
0015
fff2
ffaa
fffe
0017
fffe
fffd
000e
0016
0022
0000
0025
fffa
fff3
0003
0009
ffed
fff1
000e
000f
fff5
fff9
0022
001a
fff7
0026
fff3
fff9
ffd1
ffc9
0009
0008
ffdc
fffc
0006
ffa0
ffdb
0004
ffda
ffef
000b
fff3
ffa4
001f
0029
0004
000c
001c
ffe6
0037
000d
ffe6
fffb
000f
ffc3
0028
0033
001e
0007
fff6
ffff
000e
0003
ffe4
fffb
ffe2
ffa1
fff8
fff7
ffc9
ffdb
ffda
0004
ffe3
0016
ffd8
000f
ff94
0009
0025
000d
0022
fffe
ffec
fffe
0002
ffd4
000f
fffa
0000
0019
0000
000a
0008
ffd1
000d
000a
000b
000d
ffd4
fff0
0011
ffde
002c
001f
002f
fff2
fff1
ffed
ffa5
0005
fff1
000a
0017
ffa4
000b
ffd9
003b
fff6
fffd
ffe1
0004
0010
0022
ffe6
002c
0015
fff8
0021
0003
fff0
fffb
0012
ffa1
fffd
ffdd
ffde
ff9a
000f
fff7
0000
ffce
fff4
0012
0006
fffe
0010
ffe3
ffad
fff7
0008
fff3
ffcd
ffad
ffdb
ffdd
fff1
001d
0016
0026
fffe
ffed
fff1
000d
0001
ffa3
ffe5
fffd
000d
0004
0008
ffa7
fff2
0011
fff7
ffd0
0004
001e
ffd8
ffc0
fff5
fffc
ffef
0026
0001
002f
fffc
ffc1
0004
0012
0009
ffd3
fff9
ffe0
ffc5
ffe6
fff9
ffcd
ffff
0048
ffac
0015
ffd7
fff2
0047
0015
000d
0005
ffe8
ff9f
000e
0004
0004
fff5
0026
0019
fffb
005c
0012
fff5
0019
0002
fffb
0047
fff5
006d
fffa
fff0
0002
ffdc
0033
0000
fff4
000d
ffb4
0011
ffd1
ffed
000a
0032
ffba
ffef
ffdb
0013
fff8
0001
fffb
ffeb
ffee
ffeb
ffff
0001
fff8
0025
ffdb
0005
002a
ffe1
fffc
000f
000f
ffec
000d
0024
ffe3
fff6
0041
fffb
fff2
ff97
ffd0
0034
ffe9
001c
000b
0000
002d
ffea
fff9
ffff
0015
001a
0072
ffe9
fff4
0011
0012
ffd0
ffaf
fff1
0026
fff8
ffb6
ffec
fff1
0002
ffa4
006f
ffdf
fff4
0011
fff2
ffed
0042
ffd4
fffe
0047
0023
ffd8
ffff
0010
0011
ffeb
fff2
ffd6
ffe2
ffe7
0038
003e
ffff
0044
0003
ffdd
001d
ffe9
fff3
0031
ff86
0012
0049
000c
0006
fffa
ffeb
0041
ffd6
ffff
001b
0010
001a
0035
ffd2
0027
fffd
ffb9
ffb4
ffe7
0008
ffed
000a
ffd6
000d
0001
ffef
0008
0006
001c
ffe4
fffb
000f
0010
0007
fff1
000f
ffee
000f
0017
ffd9
001c
ffe6
ffff
fff9
ffe6
ffd2
0002
0032
000d
0000
fff9
ffd1
0005
000e
0010
ffe4
ffeb
0020
000d
fff3
0011
ffef
001f
fffb
0004
0009
002a
0010
0001
fff8
001e
ffde
0002
0015
000b
ffc6
0037
ffc0
fff8
ff9e
0005
ffbf
000e
0006
fffc
0005
0031
ffe9
ffe4
ffe3
ffc3
fffc
fff2
002f
0015
fff6
0032
ffeb
ffec
fffd
0018
0005
ffe4
ffe9
0002
003d
0013
ffea
002f
ffe7
0025
005e
0000
0012
fff5
ffb5
0021
0019
ffde
ffff
0001
004e
0020
fff8
004c
fffd
006e
000c
0012
ffd1
fff1
0020
0012
ffd7
0027
ffc8
ffe0
fff4
0016
0044
002a
ffe5
0007
ffdf
ffdb
ffeb
002e
001f
fffb
0000
ffa7
ffee
fff9
0014
000c
000f
0015
fff5
ffe1
000e
0001
fff6
ffcd
fffe
0013
fff3
fffd
002e
fff2
ffe9
fffd
ffc2
ffe7
0037
ffc8
ffeb
fff7
0025
ff8c
007f
fffc
0009
fff3
fff6
0007
0033
001c
ffe7
ffe8
ffe1
ffac
ffdb
0006
0018
ffea
002c
0015
fff8
fff2
001d
fffa
001d
000d
fff0
fff9
0004
0057
fffd
ffe7
0033
000f
fff5
fff3
ffee
004e
ffe2
ffad
ffd9
ffe4
ffd5
ffef
0014
ffcb
0066
000f
0056
fffe
ffe7
0004
0004
fffe
001d
005b
005a
fff6
ffc8
ffae
ffeb
ff9f
ffd1
0018
000d
0006
fff4
fff8
001a
fff2
fff6
0030
ffff
fffd
fffe
ffad
ffe8
0043
ffed
0004
003d
0024
0015
0010
002e
0021
ffe3
000a
0024
0015
0038
ffbc
0024
0011
001a
fffb
ffe9
0012
fff4
ffde
0009
002c
ffe5
002c
ffe6
0016
ffcb
0045
fff5
001f
0032
ffef
0000
fff5
fff2
fffd
001b
000d
0019
0031
0051
ffce
fff1
000e
0011
0030
ffe8
0005
fff7
0044
ffac
0003
0029
000c
ffd6
fff3
0039
0003
ffdd
0027
0019
004a
0019
ffe6
0003
0017
ffcd
fff7
000d
000c
000a
fff9
0018
000d
ffde
0024
005b
ffff
ffee
0002
fff5
0014
0039
0033
0015
002c
ffe4
fffa
001d
0069
fff8
0011
000d
0028
ffe5
fff9
003c
0031
0006
ffe6
fffc
ffd9
003b
003c
ffe6
fffa
ffda
ffc4
0010
000c
ffd5
fff2
0065
ffde
0012
0010
0012
ffed
0004
ffde
004d
001f
ffe2
0046
fff9
005a
003a
0050
fff2
0012
0006
fff3
0018
0008
fff8
fff2
ffee
ffed
0009
000a
000d
ffdb
ffbe
ff8e
fff1
ffc9
ffda
ffcb
0006
ffe3
0023
ffb0
fff3
ffbf
ffe1
ffdd
fffa
ffde
002e
ffda
ffd7
fffd
000e
0029
0009
ffec
ffc4
ffd0
0006
001d
ffce
ffce
ffd2
0000
004d
ffe5
0003
002a
ffeb
0008
0005
ffe9
ffc6
0012
0002
ffe5
ff76
fffa
0032
0007
0034
ffda
ffa1
0047
ffe3
0009
fff6
0044
0014
ffa4
0027
ff71
000f
002c
000a
ffcc
0018
0006
003f
0003
fffd
fff4
000a
ffed
002a
fff7
0013
000b
ff95
0001
0049
0014
0007
ff77
ffef
0036
0016
ffdd
ffd8
ffd1
0030
000e
0013
ffcf
0049
0004
0011
fffe
ffed
ffdc
0017
ffe7
0043
002c
0011
ffe9
0002
0017
ffa9
ffec
001c
001e
0001
0002
002c
001b
0016
ffa1
fffe
0003
0034
fff7
fffd
0013
0021
0030
ffe9
ffc9
ffde
000a
0005
fffb
ffeb
ffe9
0026
0002
0005
001b
0027
0032
003b
0010
fff5
002c
fffd
ffce
0002
ffa0
ffc6
002d
0003
fff2
ffea
ffd9
fff9
003c
0003
0035
001c
0027
0003
0007
003b
002f
fffe
0008
0007
0048
0004
0002
0001
0004
0001
000e
0045
0027
fff6
0005
ffd9
0004
004e
0018
0001
0015
0017
0042
002e
001f
ffd6
0042
fffd
0047
ffc3
003f
fffa
002f
0064
0014
ffff
000a
ffe4
fff6
ffd3
ffa6
0025
ffd5
fff9
0021
ffb5
fffc
fff7
0033
0001
fffb
ffb7
0017
fff3
004f
fff0
ffd1
ffd5
0010
000b
ffea
ffff
0024
ffce
ffe2
ffe6
ffd5
003a
0026
0000
fffe
fff7
003d
0008
fffa
0027
003e
002f
0012
fff4
000f
ffd8
0047
0003
0000
0013
002f
ffd6
0004
0018
fff6
ffcc
ffd7
ffea
fffe
0029
ffff
ffee
000f
0022
002d
ffde
ffd2
000a
0003
ffc9
001b
ffef
0002
002e
0027
0033
0000
ffcf
0023
0018
0000
fff4
0010
0030
0004
fff8
0036
fffd
0016
000b
ffeb
003e
000d
0029
ffd7
ffff
0011
0005
0015
000d
0014
0036
0012
fffb
ffe9
fff2
0054
0014
000d
0044
ffd6
0038
0015
fff0
ffed
0044
0040
0000
ffe9
002a
ffdf
fff0
0013
0018
0060
fff6
ffdf
002b
0000
fff0
ffec
0031
0011
0021
000b
0041
000a
0000
ffe7
fff9
0000
0002
000d
0003
ffef
000b
ffea
ffeb
ffbe
0001
0025
000a
0017
002c
005b
0027
ffc7
0042
000f
0059
ff98
ffc7
0023
0001
fffd
000b
ffdb
0018
fff8
0020
0018
fffd
0000
fff0
0038
000d
fff3
002f
001e
000a
0003
fffb
fffb
ffee
ffff
0017
ffc8
0005
0009
fff9
001a
ffcf
ffc0
fff0
0030
001e
0043
fff7
003c
0039
0013
ffbe
fff3
004d
000e
ffc0
ffbc
fff2
000d
ffed
0003
0025
001d
0013
fffd
002c
0014
fff6
000c
0000
0021
ffef
fffc
001a
fffa
002e
ffdc
fffc
0022
003a
0000
000a
ffa6
0000
000d
002d
ffe3
000f
0035
0005
ffec
ffe3
0000
0011
0020
002b
002e
ffd3
fff2
ffe1
0004
0021
0031
001c
0003
000b
000c
ffab
0040
0004
002c
0040
0012
ffae
003b
0029
0050
0031
ffdc
fffd
0002
ffe6
0010
fff5
0043
0012
0023
fffb
ffcb
0033
ffed
fff7
ffe0
ffdd
0000
001f
0035
0016
000f
002c
ffec
0045
000d
ff78
fff9
002c
fff6
0005
ffc5
000d
0053
0032
000a
fff5
0031
ffd7
005b
000a
001c
ffca
ffdc
005b
0046
0047
0011
0006
001a
000e
0013
ffeb
fff2
0006
ffb5
fff6
fff6
0048
ffee
000a
ffc8
ffcd
0032
ffe9
0015
ffe8
001b
fffe
0027
fffb
fff3
004e
001d
ffd0
0000
fff9
fff2
fff5
0022
ffe6
0015
003e
0000
000e
0006
000c
fff5
0049
ffef
0008
fff3
0021
004c
0002
0033
0000
ffd1
0003
000e
0017
ffe7
0011
003f
fffd
fff1
001d
0012
0031
0000
ffef
ffe6
004d
0055
ff9e
0034
000b
0024
fffe
fffb
fffb
0050
0018
0042
001d
0004
fffd
003a
0019
000c
ffe0
0011
ffe5
fff6
0003
ffd9
ffb6
004c
0008
004f
000b
005c
001f
0022
002b
ffe7
0042
0024
000e
fff9
fff4
0015
ffe7
fffa
0020
ffe8
ffb4
ffb2
000a
ffd4
0027
ffa2
ffd2
ffcf
ff9e
ffff
fffc
000d
0014
ffa8
ffe3
ffe8
ffee
0000
0007
001a
000f
fffa
002d
0010
ffe6
003d
0011
ffd8
0044
ffe0
0041
0019
ff8a
ffce
ffe7
fffe
ffed
ffa6
fffc
ffe6
0000
0012
ffbf
ffdb
003b
ffe7
0009
ffc6
0022
fff0
0006
ffba
ffd8
ffb7
ffe7
ffe8
0015
0024
0008
ffcd
fffc
0016
ffa5
ffb0
ffef
001d
ffaa
0010
0013
fffa
000c
001e
ffb7
ffc2
ffcb
ffbb
0030
ffe2
0017
0007
fffc
ffd0
ffde
0000
ffde
fff9
0011
002a
ffef
0004
fffa
0018
ffe7
ffff
0008
0009
fff9
ffee
ffac
ffe9
fffe
ff9a
004e
ffee
ffb1
fff4
ffe3
ffd8
000b
ffe0
ffc0
0044
0038
0001
0010
ffe1
000d
0019
ffb3
fffc
ffdd
0008
0007
0029
ffc7
0027
0001
fff2
001f
ffd8
ffae
0027
ff7b
000f
003a
ffff
002f
fff8
ffea
0059
ffe9
0003
0024
002d
000d
0038
ffd3
0006
ffc4
ffd2
000f
ffec
ffdf
ffee
0008
ffdf
fffe
ffe0
ffee
fffc
ffe5
0016
ffd2
ffc4
fff3
0036
ffd7
ffde
0012
0003
ffde
0017
fff3
0017
ffac
fffe
fff3
ffe7
ffd9
0012
0011
0001
fff9
fffb
fff3
ffff
000d
0002
fff4
ffec
0032
0003
ffee
000b
000e
0021
0019
0013
ffb7
0032
0009
ffc5
ffe9
ffe9
ffba
ffd1
001b
ffe7
ffb0
002b
ffb8
ffba
ffd6
ffdd
ffe1
fff8
000a
0010
0009
ffef
ffff
0003
fff7
0018
ffe5
ffc2
002e
001f
fff7
0037
ffc2
ffe8
0004
fff9
ffd0
ffe2
fff2
ffdf
0013
fff1
ffaa
0055
001b
fff6
0010
000b
0015
ffdb
ffee
0057
0005
ffe6
0004
001d
0043
0001
ffb7
0013
ffb6
0069
000c
ffeb
000b
fff4
0013
fffc
ffd9
0006
ffd4
0004
ffab
ffff
0041
ffef
ffd8
ffe8
fffa
ffdb
fff2
fff8
003f
ffce
ffde
ffc3
ffde
ffe8
000b
001b
0002
0011
ffc7
ffe6
ffcf
fffe
ffbb
ffcb
ffd0
ffda
000f
000f
0017
ffc2
ffb4
0006
ffc6
fff2
002c
ffd0
0005
ffe0
0018
ff9e
0070
ffe8
ffd6
001f
000f
ffd9
0003
ffe6
000e
ffab
ffe1
0001
fff6
ffde
000e
0009
0006
0011
0013
fff4
0017
ffb8
0031
0004
ffe9
ffbe
000a
0057
ffd1
ffe0
001d
0001
fff8
fff4
fffb
0040
ffeb
0025
ffd2
fff8
ffe6
fff4
fffa
ffd5
0064
0007
003d
ffd3
ffe9
0001
ffb2
ffcb
0016
003a
0032
ffad
ffd4
ffe8
fff0
ffbc
ffca
0024
ffbe
ffc2
fffe
ffc1
0029
fff3
ffbd
0008
001c
ffcf
001b
ffb5
0013
0054
ffee
fff0
001c
000a
fffd
fffd
fffe
000b
ffd6
0017
0054
0006
002e
ffcc
ffd9
0008
0008
0003
ffe9
fffe
0015
ffe0
ffcd
0059
0018
0035
fffc
fffc
ff8b
0033
fff4
0025
0037
ffef
ffed
ffb5
ffee
fff4
0037
0046
0005
001b
000e
ffe9
000c
ffe3
0016
0012
ffd6
ffff
fff0
000d
0011
0000
003c
ffee
ffff
fffe
ffe1
ffcf
fff6
000a
001c
0056
fff4
fff0
fffa
fffc
ffc3
0000
ffca
002a
0004
0015
0010
fff2
0002
000b
004c
ffed
ffe7
000d
fff5
fffd
ffed
0012
001d
ffe9
fff3
ffee
0019
0031
ffef
ffbb
fff9
0024
ffeb
ffed
002a
001b
ffd6
001d
ffc2
ffe3
001a
0017
ffd4
ffcd
fffd
0019
fffd
0018
ffc9
ffee
004e
0004
0015
ffdf
0000
ffe5
0024
ffed
0020
003c
0006
005b
ffc1
003c
ffeb
003b
ffbb
0006
0024
ffe7
0010
001c
0001
001d
0012
002d
0011
ffd9
000e
ffe5
ffd9
ffbf
ffd7
ffe9
0001
fff5
fff3
fff2
000b
0008
fff6
ffd7
fffe
ffed
ffcb
ffed
fffa
fffb
ffbf
0006
ffb0
001c
001d
ffcc
ffcd
0015
0001
0030
ffe8
ffee
ffe7
0004
0060
ffde
000c
0006
0004
fffe
fffb
fffa
ffb1
0000
004e
fff3
ffdf
ffaf
0018
ffa0
0002
0024
ffe8
0024
ffac
0018
000e
001b
fffe
ffad
fff7
fff6
000f
001e
0000
ffb4
000c
0004
0022
000d
fffd
0012
0003
002e
0000
ffd4
0028
0006
fff4
ffad
0008
0018
000d
ffd2
000c
fff2
fff5
ffdb
0031
001c
0012
ffea
fff7
ffef
002b
fff3
fffb
ffb2
ffe3
ffe5
0015
ffd1
0012
000c
0004
ffd4
0047
0012
ffe2
ffaf
0041
0030
ffaf
001b
0008
0005
fff9
000a
ffaf
ffa1
ffeb
fff7
004d
ffdb
0037
0030
0011
0002
fff0
ffe2
ffcd
0002
fffc
0030
0003
0038
0019
0009
000b
0008
0025
002e
0032
ffe4
ffa4
ffe1
001b
ffff
0018
0005
ffae
ffc8
fff3
ffcf
fff8
0006
ffa9
0030
001d
0034
ffef
ffaf
002a
0008
ffb4
fff1
000b
0027
0030
0040
ffbb
0019
0021
ffe7
0020
ffd1
ffad
0004
ffce
0012
004b
fffe
0028
0000
0005
001d
0002
0007
003a
0006
0021
0022
ffda
0047
ffad
0004
0006
0021
ffb1
000d
ffec
ffe5
fff1
ff72
ffe1
001d
ffcb
0004
ffdb
ffa8
001c
0013
ffb4
0039
ffb0
ffe1
ffc5
003a
ffcd
fff2
ffc9
0019
fffb
0014
0006
0007
0032
000b
ffbe
ffe4
fff5
001e
0015
fff4
ffde
0012
0053
fff4
fff3
001d
0009
0014
fffa
0006
ffaf
fffe
0018
ffb0
0013
ffd9
0014
ffa7
fff8
ffcc
ffba
0031
ffe8
ffa6
0000
ffbb
ffcb
001e
000a
fffe
0018
ffbb
0001
ffd5
ffee
0005
0018
ffb8
001d
0023
0022
003c
ffd8
0007
fffb
fffd
ffb4
001a
002f
ffb7
0028
001e
ffaf
0004
0006
fff6
0015
0027
0026
0008
ffe7
0040
0009
000b
000d
0022
003a
000f
ffad
fffd
ffbb
0031
0022
ffcd
001a
0018
ffe2
0028
0008
000c
0002
fffc
ffbd
ffbd
0024
0006
fffe
0017
fff9
0029
0002
000d
005e
ffb5
ffac
ffe9
0006
0017
ffff
000f
001a
0008
ffab
0034
ffc7
fff3
ffa4
ffad
ffb4
003c
0006
0028
ffed
ffc8
ffb3
0034
0012
fff7
fff9
0020
002a
fff3
0021
0004
0062
ffd0
ff9d
ffee
002c
ffb9
ffec
001a
fff5
ffa4
fffc
0009
000b
ffa0
ffe2
000c
001a
0013
000c
000d
0005
ffb0
0021
ffe1
0006
ffae
0017
0026
ffb4
0039
0001
0040
000b
0010
0005
0023
fffc
ffe8
0016
000b
0008
0011
ffa4
ffc1
001d
0005
ffd0
0046
ffde
001d
ffb3
ffc4
001e
004f
000d
ffa0
0003
ffc8
ffd1
fff7
fff2
fff4
ffbd
ffd8
0018
ff9f
0012
001c
ffb1
0030
fff7
ffa3
fffc
ff89
0003
002f
0007
0017
0016
0002
001d
ffdc
003c
0015
000f
0018
000e
001c
0015
ffde
0030
0008
000f
0015
ffda
0035
fff6
0004
ffef
0041
0016
ffe7
002c
fffe
0022
0037
fffc
001b
0034
ffc3
002d
ffc0
000b
0018
0004
0030
002e
0052
000c
ffd1
fff5
002c
0005
ffe6
ffb1
fffe
ffff
0041
fffa
fff7
ffdf
002c
000e
0006
ffe1
ffbc
0021
fff5
004d
0017
fff0
0014
001a
000b
001c
0004
ffce
001d
0007
0008
fff1
0003
001d
0026
0030
ffef
fffa
ffbc
0003
0007
fffb
ffed
0021
fff7
ffed
0004
002e
ffdb
000e
ffe4
ffd5
0072
ffcb
0019
ffd9
0021
ffc9
001a
ffaf
ffee
0038
002b
ffb2
ff9e
fff5
001e
ffeb
0011
ffc4
fffb
003e
0005
0018
ffed
0015
fffa
fff4
ffba
0003
0029
fff3
001c
ffac
001c
004a
fff3
ffae
fff8
004b
ffce
0017
ffb9
000e
0025
0017
0007
0035
ffb5
fff9
000a
0011
ffef
000e
ffe4
0006
ffed
0016
001e
ffe4
0005
ffec
0014
fffc
ffea
ffad
0004
000b
000f
fff8
0031
ffb4
0025
ffef
ffe0
fff6
000f
0021
0048
fffc
0006
0002
000b
0040
fff9
0021
0020
004f
ffd4
fff2
0000
ffe2
0001
ffec
0009
0015
feff
0018
febf
000d
fff5
0005
0002
ff74
0002
fffb
0002
fffc
000b
fffe
0034
fff1
fffb
fff3
fff1
fffe
ffe2
0002
0013
0000
001b
0004
0000
001b
ffee
0002
ffff
0005
fecb
0002
fff4
fffd
001f
fff1
000c
0008
ffe9
ffe7
000d
0005
0021
0000
000b
0009
0005
fff6
ff14
ffe9
000e
fffc
fff3
fff7
fff8
0008
ffe3
fff6
fff9
0008
ff60
fffa
000b
feeb
fff0
0008
0000
fffb
0009
fee5
feea
0000
000e
0010
0005
fff9
ffef
ffef
0008
000b
0009
ff98
0005
fffa
fff3
000c
0008
fff7
fff4
fff8
000d
ffdd
0000
fff9
fffc
fee9
fffc
fff6
ffe7
fffa
0005
ff01
ffc3
fff5
000a
fff2
fffd
fec2
fffc
fff3
ffee
0010
ff05
fff0
0000
fee7
0010
fff5
000a
fff1
0016
ff10
0000
fff0
0002
0005
0015
ff34
ffe6
0001
ffff
0004
ffff
ffe5
000c
fffe
0009
0006
fffd
fffd
0005
fff6
000b
0008
ffed
ff34
000d
000e
fff1
fed4
ffeb
0001
ffe7
0000
fff8
0000
001a
ffb1
0007
0006
fed8
fffc
0020
ff12
ffd8
000c
0008
ff95
ffee
000f
0003
ffee
fff1
fffe
0008
0008
fff7
0001
ffea
0007
0002
fffd
ffff
fff8
0004
fff6
ffff
0006
000c
fff7
fffb
0006
0004
fff7
0001
ff8f
fff2
000d
fee3
0017
0012
fffc
febe
0007
ff84
fffb
000f
ffff
ff1c
fffd
ff41
0005
fff1
fffc
0006
ffe8
0006
fff3
ffeb
001a
0015
fff2
fef1
0008
fffc
0004
0007
ffff
0001
0009
ffeb
ff5b
fffb
ffff
ff52
fffd
0001
ff23
ffe0
0018
000a
fffe
fff3
fff8
0009
ffff
fffc
0004
000b
0003
fff4
0018
fff9
fee9
000a
ff5a
0002
000d
fffd
fff5
0003
fff4
0001
0009
fff8
001e
0009
ff1e
fffd
fff5
fff6
fff3
0004
0006
0000
fff2
fff5
ffec
ff0d
ffb6
0013
0005
fff5
fff5
ffe9
fffe
fff0
ff06
ffe1
ff7d
000c
fec8
000b
ff1f
ffe3
0012
ffec
fffc
0010
fecc
ffe6
0004
0004
fff7
0009
000d
ffea
0005
fff9
000f
0022
000b
0005
0004
ff1b
000c
ffe7
fff4
ff28
0019
0028
fffd
fed5
0002
fff5
fffa
fff3
000c
fff4
0004
fede
fff3
fffc
0008
fef7
0014
fff9
fed7
ffe6
fff5
fff9
0006
ffff
0002
0002
0003
ffe9
fff2
fffe
000c
fffd
0012
0005
fffe
fff7
fff8
000d
0006
ffef
ff58
ff0d
0000
fff7
0015
fed9
000e
fff8
0020
fff9
ffee
0002
ff3c
ffaa
ffed
fec3
fffd
0004
feee
ffeb
0007
feee
000b
fff2
000d
fff6
fffe
fffb
fffe
0006
fff3
fff8
0005
001b
0001
ffe4
fff4
fffb
0008
fffc
0006
fffa
fff6
fffd
0007
fff8
fffa
ffe3
fffc
fff9
ffff
ffdc
0001
fffe
ffff
0003
0004
0000
fff9
fffa
fffa
ff4c
fff1
fff9
fff9
000b
fff9
ffee
0004
0009
fffe
fff5
000a
0000
0001
fff3
fffb
0000
fffa
0006
0006
ffff
001a
0004
0016
ff5b
fff8
0010
000d
0012
fff0
fff1
0007
fff6
fff6
0000
ffbe
000a
fffb
0001
000a
0014
fff9
0002
0014
fff5
0016
fff6
fffe
0000
0004
0000
0002
fffa
0000
0008
fffd
0021
0006
fffb
0000
fff9
0003
fff4
000f
ffec
0018
fffc
fedd
0008
fffc
fff3
ffe4
fee2
fffe
ffff
0004
0012
0026
fffb
000d
0002
ffed
0023
fff0
0009
ffd9
fffd
fffa
fff4
000b
0009
fed5
fffe
ffea
0003
fec8
0004
0014
0003
0002
0004
000b
000f
000b
000e
000c
feec
0004
fff9
0009
0009
001e
0002
001a
0000
ffec
0006
fff1
0008
fff5
0009
0008
fffb
fed2
0003
0007
000b
ffed
0003
ff62
0017
fffa
fffd
000e
0003
fff4
fff6
0012
0011
fffd
0004
fff7
fff2
ffee
001d
ffd8
fff7
0005
fffb
0010
001d
0016
0052
000a
0003
ffc3
0001
ffda
ffdf
ffed
ffdb
fff5
ff89
ffdd
ffe1
fff1
ffbd
ffe5
fff9
ffd6
ffb9
003d
0011
0009
000d
ffbf
fff3
0019
0032
ffee
ffe4
ffd2
0005
ffed
0027
ffdb
fffe
ffdb
fff4
0019
ffe2
ffed
0010
0009
0014
000f
0002
fffe
ffe9
000d
0008
fff4
000b
fffd
ffff
002a
fff5
0049
000b
000b
0025
001d
003d
ffe6
ffe6
ffdb
fff5
ffc9
ffad
0005
ffe4
ffec
fff2
ffef
0033
fffe
0003
ffeb
fff2
0005
001c
fffb
0021
fffb
fff8
0076
fffb
fffb
000b
005f
ffd1
000f
ffcc
ffcd
002e
ffea
003d
fff8
ffb8
0042
fff5
0001
0069
ffc3
ffe5
fff6
ffdf
fffe
0004
ffef
0011
fff3
ffdb
fffc
ffe5
0006
000c
0009
0001
ffba
0023
fffa
ffe0
ffb3
ffaa
ffd7
fff7
0000
ffb4
ffca
ffe9
ffd5
0011
ffff
001d
ffcb
0038
ffbd
0004
ffb2
ffe5
0005
0016
0015
fff5
ffbf
001a
ffcd
ffe8
0073
ff77
0003
ffe6
002d
fffa
fffc
ffe5
0027
002e
ffdb
fffd
ffd8
0050
ffff
0014
002d
0004
ffb7
0022
fffe
ffe0
0010
0009
ffff
ffd6
ffd8
002e
0010
ffe4
ffcf
003d
0041
ffec
ffe0
0004
0025
0028
0026
ffc5
fffa
0008
0010
0002
fff2
002a
001c
0000
002d
002e
002b
0002
ffef
ffed
0023
0004
ffea
ffd7
fffd
fffe
fff8
fffd
001a
fff1
0040
0004
ffec
0004
003d
ffce
001a
fff2
ffe0
001a
0021
003a
ffec
0022
ffe0
0002
ffd5
0056
0001
ffd2
ffd4
ffd8
0005
000f
0001
ff9c
ffd7
ffff
ffd0
ffcd
fffe
ffdf
fffb
ffcd
ffa8
0010
ffcb
fff1
000f
ffed
ff9c
fff4
fff1
ffd4
ff9c
ffd8
0002
0021
fff9
0000
0030
002e
fff9
0016
0043
000e
ffde
0017
ffbf
003d
ffff
0018
ffe4
000b
ffa8
ffe8
0002
ffcb
0014
ffec
fff3
ffff
fffc
0058
ffd3
ffc3
ffe8
0003
ffe4
0016
0002
fffe
0000
ffdb
ffff
002c
0002
ffeb
002b
ffdc
0012
fffb
0000
ffe1
0019
0002
001b
ffe9
0003
fff8
0008
001e
ffd0
ffdf
ffc6
0015
ffcb
ffff
ffc8
ffda
0017
fffe
ffe6
0028
ffe4
0002
0015
fffc
ffd0
ffe2
0007
ffe9
fff1
0000
ffee
0006
003b
0001
ffde
ffe9
0003
ffe4
0013
ff91
0058
0037
0025
ffe9
ffdf
003d
ffe7
0016
ffe4
ffdc
ffff
0029
fff8
0001
001f
ffd9
0005
ffc9
fff4
0001
fffa
ffda
0000
0000
fff8
001a
ffa3
ffe2
002c
0017
fff7
fff8
0035
0000
000c
ffe6
fffc
ffa0
fff2
0003
fff9
000c
0003
ffd0
fff6
0041
0013
fffd
ffc1
003a
fff4
fff1
ffef
0004
fff8
ffd2
001f
000c
ffdd
fff5
ffe4
0029
0004
fffc
0053
fff6
fff8
ffea
ffde
ffb2
0040
fff7
ffc8
0007
ffef
ffe0
0023
0025
ffb1
0002
ffd5
ffc7
002c
0022
ffd3
fff9
0030
007f
0021
ff97
0034
ffe7
000e
ffeb
ffd5
ff81
003b
fff3
0010
0000
0016
ffed
0002
fffd
ffcd
ffd2
ff9a
fff3
0018
fff2
ffe5
ffff
fff1
fff6
ffe7
fff2
ffe0
0012
0031
0027
000d
fffd
001e
0005
000b
0030
0016
ffeb
ffef
ffe2
fffc
ffee
0001
0060
0035
fff4
0015
fffc
0006
ffe0
001f
ffc1
fff7
ffd1
ffdb
003b
0000
0029
ffcf
ffcd
0060
0002
fff5
0017
ffe8
0018
fffc
ffe3
ffd1
0003
ffe7
fff4
ffca
005e
0033
0040
000b
ffe3
0063
ffff
fffd
ffc9
ffd1
0003
ffff
0021
fffb
0017
fff7
0045
fffa
001f
002e
0037
ffba
0002
0056
0015
0017
fff4
ffa5
0053
fffc
0049
ffc9
0062
0011
003e
0038
ffc6
001b
0003
0001
fff0
ffde
fff8
fffb
0018
ffff
fff3
0025
ffdc
000a
0037
0000
0034
fff1
000b
ffdb
0008
000e
ffcf
0031
ffe1
ffe4
fff5
003e
000e
fff0
fffd
ffd5
0025
007c
ff24
fff7
ff16
fff0
ffe8
003e
ffe2
fff3
001b
fffb
fffd
ffe5
007b
0023
0047
000a
fff3
000a
0038
ffda
ffe5
000f
ffff
0006
ffde
ffe4
ffec
fff3
0002
0004
0010
0047
ff1b
ffec
ffe2
fffd
0064
fff6
ffe6
0010
003d
fff2
ffd8
ffd8
003f
fffb
0013
000a
0003
fff9
ff63
ffdf
000b
fff3
0004
0001
ffdf
0024
fffd
fffb
ffde
002a
ffd8
fffc
0000
fed4
0001
ffcf
ffe9
0012
0014
ff23
ff1b
001d
0001
fff6
0002
ffee
fffe
fff0
ffe4
0007
0036
ffdc
ffec
fff0
ffd9
fffd
001c
fff7
ffe6
fff5
ffee
ffa7
000f
0006
0016
fef5
ffe9
0000
0030
fffb
000f
ff19
000a
002d
0027
000e
0004
fed4
000f
ffff
ffe1
004c
ff76
fffa
0009
ff2e
001a
0000
000c
fff9
fff5
ff68
0003
fff6
000a
ffe7
ffee
ff52
fffb
0020
fff5
ffd9
fff6
0008
0002
ffe3
0003
ffe7
ffe7
000d
ffe7
0002
0009
fff2
fffe
ff77
0009
000e
ffe2
ff42
0001
0031
ffdb
0025
007f
000a
ffd8
ffff
fff4
0047
ff21
0011
0018
ff7e
ffb7
0058
0016
ffda
000a
0030
0023
fffe
fffb
0004
ffef
fff5
ffee
0000
002b
fffe
000e
ffec
0003
fffb
000c
0016
000d
fff7
ffed
fff3
0003
ffe1
fff7
ffc0
ffe4
fffc
ffc1
ffec
ff3a
fffa
002e
0007
fee1
fff3
fff2
002e
ffec
fff0
ff3b
fff7
ffad
ffed
ffe9
ffe5
0025
000c
fffa
fff3
0009
0061
0018
0006
ff22
ffec
ffea
ffe9
000b
0049
fff6
000d
fffc
ffbf
fffb
fffb
ff98
0008
000d
ff51
0015
0009
001c
001c
ffdc
ffcb
0002
002c
000e
0022
ffd9
fff2
ffb4
fff3
0011
ff13
0001
ffba
ffe6
ffc4
0003
ffe2
0003
ffcd
ffcf
000c
fff7
fff2
fff8
ff35
000d
ffd4
000c
0016
fff9
0007
ffc9
0011
001d
ffed
ff71
0023
ffd4
fff6
0003
ffe2
ffdb
fffd
0019
ff5c
fffc
ffcc
fff4
fef2
000a
ff84
ffb7
fff3
fff1
002b
005f
fef7
ffe4
ffd1
0019
ffe1
fff0
ffec
0019
ffe6
fff0
ffcb
0059
007f
0011
ffe1
ffb2
0011
0019
ffef
ff4a
0036
ffec
0027
ff2f
000f
ffc6
fffc
0006
000c
fffd
fff6
fee3
fff3
000e
ffd1
ff1f
fffe
fff4
ff39
ffc1
fffc
0007
fffe
0006
fff5
fff9
0009
fff3
0007
0009
fffb
ffee
0056
003e
ffe9
fff2
0048
0015
000d
fff2
ffc2
ff5c
0016
ffe8
0013
ff04
ffc7
0002
004b
ffde
ffcc
fff2
ff9c
fff3
ffdc
feda
ffdc
0013
ff15
ffd7
fff5
ff53
fff6
0062
002f
0008
fff6
ffff
fffa
ffdc
0016
ffd1
fff1
000e
fff4
fff9
0016
fffa
ffd4
000d
ffe0
0006
fff5
ffef
0003
ffd1
fffe
ffec
0015
fffc
0033
0008
ffed
000e
ffe9
ffe6
0005
0024
0008
0042
0011
ff8a
fffb
fff3
0008
ffeb
fff4
ffe7
0019
fff5
ffed
000b
ffea
ffd3
0036
0010
0002
000c
ffe1
fffb
fffd
fffd
ffe9
ffd9
006c
ffc1
ffea
0028
0020
ffe4
ffee
fff3
0018
0016
ffed
fffa
fff1
000c
0013
ffcc
fffe
0012
0003
ffe7
fff8
ffe5
fffb
fffa
fff1
fffd
ffe5
0039
0006
003a
fff1
ffff
ffea
0036
ffdf
0006
0046
ffd1
0009
ffef
0020
0020
0016
ffb2
ff18
0035
ffed
fff9
ffff
ff23
0035
fffe
0029
ffdf
fffa
ffd7
0007
000e
000d
0007
fff9
fff8
ffc2
0023
fffb
000f
ffff
fff9
ff33
ffe1
ffba
0001
fee2
fffa
ffe2
0020
0012
ffdb
0007
ffc1
ffe3
ffe5
0017
ff46
0010
fff5
fff7
ffd9
003d
ffc1
ffe8
ffe9
fffe
ffe2
ffe7
0006
fff3
ffdb
fffd
fff3
ff01
0001
0016
fff6
0024
fffa
ff8d
000a
0001
0045
0008
0009
0018
ffa7
000c
ffc2
ffd7
ffe0
000b
0026
ffc6
0001
ffd6
000a
001b
fffb
001f
fff7
ffd5
0010
0060
ff31
ffd8
ff2d
fff8
ffd4
003e
ffd7
ffc7
001d
fffc
fffc
fff0
0051
000c
0032
fffe
fff2
000e
005b
ffe9
ffee
001e
000b
0005
ffec
fff0
ffdf
000a
fff4
0021
001f
002a
ff35
ffee
fffc
0001
0048
fff5
ffcf
0010
0031
ffe3
ffe0
ffe8
002d
fff0
fffc
000a
0003
fff4
ff55
ffd6
0004
fff8
fffd
fff8
ffe6
0022
ffef
fff4
fff2
0006
ffac
fff0
ffe8
feed
0005
ffdf
ffe1
0007
0031
ff30
ff13
0001
fff2
0003
0002
fff2
fffa
fff2
fffd
0015
002a
ffc8
ffe4
fffc
0008
ffee
0016
fff6
fff7
ffdd
ffe6
ffb3
0004
000f
0001
fefb
fffd
fffb
0004
001e
fff9
ff0b
fff8
0012
001d
001a
fff1
fef8
0016
0002
ffd8
0042
ff86
ffef
000a
ff24
0001
fff7
fff8
fff8
0004
ff66
0007
fff3
ffff
ffe2
fff5
ff53
0011
ffed
0004
ffda
fff8
fffb
ffe9
ffdb
001d
ffe3
ffde
0001
ffec
0007
0001
ffe9
ffff
ff78
fff0
fff1
ffde
ff64
fff9
0034
ffd3
001f
007d
fffd
ffee
ffe9
0009
0033
ff3f
000a
0019
ff7c
ffb7
004d
0017
ffd6
000c
0024
0029
0010
fff7
0000
fff8
fffa
fff6
fff5
001d
0005
000d
fff7
ffff
ffff
0011
0011
fffb
fff8
fff0
ffee
fffc
fff2
fffa
ffdb
ffe6
0001
ffcc
fff5
ff48
0008
0025
ffee
ff09
ffff
ffd9
0017
fff6
ffdc
ff38
ffe5
ff9b
ffd9
ffe9
ffea
000d
000a
0013
fffa
0012
005b
0012
fff8
ff2c
fffa
fffe
ffea
fffb
0026
fff6
000a
0002
ffa5
ffeb
ffe9
ff94
fffd
0015
ff33
0019
fffe
0026
0026
ffe0
ffd8
fff9
0016
0013
001e
ffed
ffef
ffa4
fff3
0014
ff1c
000e
ffa1
0002
ffc1
000f
ffe2
0009
ffe7
ffd6
fff7
0004
ffd6
fff0
ff23
001b
ffe5
0008
000e
ffeb
fff8
ffc3
0001
0032
fff1
ff6d
0010
ffd3
0002
fff7
ffe2
ffdd
fff7
000a
ff5b
ffef
ffae
fff5
ff02
0003
ff83
ffd8
fff1
fff0
002d
002f
ff0d
ffe4
ffd4
ffff
fff2
ffe1
ffdf
0002
ffeb
ffdd
fff7
0043
0075
001d
ffdc
ffa3
0011
000d
fff2
ff1e
0020
ffdc
0006
ff58
0016
ffc5
ffff
000c
0002
fffc
fffb
ff01
ffee
fffb
ffdf
ff3c
fff2
0003
ff4b
ffb9
0010
fff6
0004
0010
fff6
0003
ffff
fff1
fff6
fffc
0002
ffe8
004c
0035
fff8
fff2
006c
0012
ffff
ffef
ffa8
ff52
000f
0002
0024
ff0e
ffb9
ffdf
0029
ffc5
ffc5
ffff
ff98
ffcd
ffed
fefe
ffe0
0005
ff1b
ffde
fff3
ff53
fffc
0054
0030
0011
ffec
000a
fff4
ffec
0012
ffd9
ffee
0006
ffed
fff5
0020
0002
ffed
fff9
ffe3
0001
fffc
fff1
0001
ffdd
0004
ffd0
000d
000d
0010
0005
ffe5
0011
ffcc
fff3
0004
000c
0019
0032
000a
ff67
fffb
fff1
001c
000d
ffef
fff5
0023
fff9
fff7
0003
fff2
ffe1
0025
0010
0001
0014
ffe0
fff8
0010
ffef
fff4
ffdd
007f
ffad
ffdd
0025
0009
fffe
fff6
ffef
0009
0016
ffd9
fff3
ffe6
0001
000f
ffd6
0004
0016
fffe
ffed
0008
ffed
fff6
0005
ffed
0006
fff7
0032
0008
0057
fff8
000e
fffe
004c
ffe4
0010
0032
ffdf
0004
ffe8
0032
001d
0009
ffc2
ff2b
002e
fff1
0001
fff6
ff43
001f
fff2
0022
ffe7
ffeb
ffd5
0019
0011
0014
0012
fffa
0000
ffd1
001e
000e
0008
000c
0009
ff2f
fff3
ffd8
0024
feeb
0003
ffe9
0015
000d
ffef
000b
ffc7
fffa
fffa
fffd
ff69
001d
ffef
ffe3
ffb8
0011
ffc6
ffeb
ffed
fff7
ffed
fff0
ffff
fff0
ffd4
fffb
fff7
ff26
fff1
001b
ffea
0008
fff7
ffa1
000a
0010
0028
fff3
0002
000f
ffce
fffa
ffce
ffe0
ffe6
0021
001c
ffd2
000b
ffd5
000d
001f
fff1
0011
0005
fffc
0028
006f
ff1b
ffe6
fed3
fff4
0007
0040
fffa
fffa
000d
fff8
fffa
ffeb
0064
001c
0052
001b
ffff
0007
000b
ffe5
ffe8
0011
0009
fffe
ffca
fff1
0004
ffec
fff7
fff6
000e
0057
fef1
fff2
fff7
000c
006f
ffe1
ffdb
000e
0011
0012
ffdd
ffd9
0024
fff8
0016
fff8
000f
0003
ff41
fff9
0018
0004
ffee
fffc
ffe4
0019
0009
fffa
fff1
0042
ffc1
0007
0014
fee1
0001
ffcf
fff0
0011
0001
ff05
ff09
0015
000c
ffec
0016
ffee
000e
ffec
fff6
ffff
0025
ffcd
ffec
ffea
ffe5
0001
0012
fffe
ffea
000a
ffdf
ffc0
001a
0005
000b
fee4
ffef
0003
004a
fff3
0012
ff0d
ffff
0026
001d
000e
0018
fed1
fffd
fff7
ffe4
0035
ff4d
000b
0008
ff1f
000f
0004
000f
000e
fff1
ff57
fffc
fff9
000a
ffe9
fff2
ff60
ffeb
004e
fffb
fff3
fffe
0007
0011
fff4
fffb
fff6
ffe4
000e
ffe6
fff7
0017
fff7
000f
ff68
001c
ffff
fffb
ff29
0006
001e
fff1
001a
0073
0012
ffe0
ffec
fff2
003c
fefe
0013
0009
ff5c
ffd3
002e
0015
ffc0
0017
001e
0007
0015
0005
0012
ffed
0000
ffeb
0004
0015
fff7
0006
fff1
000e
fffb
000c
0006
000e
ffe8
ffd6
0008
000e
ffe1
ffe4
ffc3
fff0
fff2
ffae
ffe8
ff1d
fffb
001b
0016
feb7
ffe5
ffe6
0039
ffec
0002
ff2a
0007
ff90
ffed
fff2
fff1
0029
0004
0004
fffb
0004
0048
0007
0013
ff28
ffeb
ffd5
fff8
0005
0046
0007
0015
0001
ffbf
000d
0006
ff83
fffb
000c
ff43
0006
0008
000d
0012
ffe1
ffc1
000d
0024
fffc
0020
ffeb
0004
ffce
fffe
0012
ff02
ffe4
ffbc
fff1
ffce
0015
ffe9
fff5
ffc7
ffe2
0009
ffff
fff8
fff1
ff2c
000d
ffde
000e
0011
0005
000a
ffd6
0015
0018
fff3
ff5b
000f
ffd6
fff2
0014
ffdc
ffdd
0004
0021
ff3d
0005
ffb9
fff3
fecb
0014
ff61
ffc4
ffec
fffd
0014
0045
fed8
fff9
ffe6
0014
ffe0
0000
ffe3
001d
0001
0000
ffd6
0047
0066
0000
ffef
ff93
0011
001e
ffeb
ff47
0025
ffdc
002f
ff06
0007
ffd3
fffc
fff5
0011
000c
fffa
feec
fff5
ffeb
ffdb
ff16
fffa
ffe9
ff02
ffe0
ffed
000d
fff8
fff2
ffec
0001
0015
ffc2
001f
0011
fffc
fff0
0035
0027
fff7
fffc
001b
002c
0009
fffa
ffba
ff4c
0018
fff2
000e
fee4
ffd7
fff4
002a
fff5
ffe4
ffeb
ffa1
ffe0
ffe3
fecd
ffe8
0010
feff
ffed
fff5
ff1f
fff1
004f
0013
000e
000e
0006
fffa
ffed
001b
ffdb
fffa
0018
0009
fffc
fff8
fffa
ffce
0011
fff4
0005
fffa
ffff
000e
ffe5
ffe6
0001
0027
ffe0
0017
ffe4
fff2
0011
0037
ffd6
0015
001d
0007
0032
001f
ff75
fffb
fff5
fff8
ffe3
0000
fff9
fffe
ffea
ffe2
001e
ffd8
ffe1
0033
0006
000c
000a
ffd5
fff4
ffe4
000a
ffe4
ffeb
0058
ffb6
fff8
0014
002c
ffda
fffd
0003
0014
0021
0000
0004
fffb
0009
0015
ffd4
ffe9
0005
0016
ffe5
fff7
fff2
0009
ffea
fffd
0003
ffda
002c
0000
0023
ffe6
0008
fff6
000e
ffec
0019
003b
ffd6
000e
fffd
0008
0027
0018
ffaf
ff15
001f
ffef
ffe8
0001
ff03
001c
0009
0023
ffd4
fff9
ffe9
0010
0002
fffb
001a
fffc
ffff
ffd0
001b
fffd
fff6
ffe9
fffd
ff15
ffe5
ffcd
fffe
feca
fff7
ffe2
0013
0003
ffc9
0005
ffca
ffd6
ffcd
001a
ff3e
fffc
fff6
fff4
fff3
0050
ffc2
ffe6
ffee
000a
ffe1
ffe5
fff9
0000
fff2
0003
fff5
feee
ffff
001d
fffb
0038
0000
ff9a
0017
fffc
0043
0015
fff1
0017
ffb2
0008
ffc6
ffe4
ffef
fff8
0018
ffd3
000b
fff9
fff8
0013
0001
0022
fff9
ffa6
ffbf
ffcd
ffb7
0010
ffe7
001a
ffae
ffc4
ffdc
ff6b
001c
fff6
0010
0002
002e
fff1
ffae
ffd3
ffeb
0011
003d
0013
fff8
0019
0004
0017
000e
ffee
ffd1
001d
fffd
001a
000b
ff67
ffd7
0003
0006
ffee
ff92
0006
ffee
0032
000a
ffd5
fffb
fff6
fffa
fff8
ffea
0043
fff9
fff0
ffb6
ffe5
0008
fff8
fffe
fffe
0001
0033
ffee
ffdf
0016
ff8f
ff90
001a
ffa4
ff9b
fff0
000f
ffeb
fff3
0024
ffc1
ffbc
fff4
ffe1
0023
ffec
fff8
fff5
fffd
0030
0028
002c
ffd8
0013
0010
ffff
fffa
ffdd
ffef
0012
ffd1
0003
fff4
fff9
fffa
fffc
ffb0
000a
ffe5
ff6b
0022
ffee
ff5d
fff8
0007
0014
0001
ffea
ffc2
003a
ffd8
000c
002c
fff0
ffec
0002
ffac
ffda
ffdd
0022
ffdd
0007
ffba
ffee
fff0
0000
0005
0022
ffa4
002a
ff7d
0003
fff2
0009
ffed
ffbc
fff1
0024
ffe8
0000
ffe0
ffff
0019
ffeb
000f
fff7
ffd1
ffe2
ffec
ffc2
ffe7
ffe3
0001
fff3
000f
0012
002d
0014
ffe2
0029
000a
ffda
ffdc
0009
ffcd
ff99
0032
0010
ffeb
0002
0011
0039
ffd2
ffe8
ffe8
000f
000f
0014
ffda
0004
fff6
0018
0003
ffe9
ffff
0025
0005
ffeb
0002
002e
0001
ffea
0021
001e
fff1
ffda
ffa0
ffe6
0028
ffcd
0003
006a
ffc8
ffd9
0018
ffe1
ffbb
0003
ffd2
ffbc
ffe3
ffda
fffb
ffe5
0004
ffeb
000f
000f
0005
fffc
ffeb
ffdb
ffeb
ffbc
0034
002e
0001
ffcc
fffb
ffe5
000b
0004
ffae
ffc7
ffd4
ffe2
fff6
0024
ff7e
003b
ffdb
0025
0049
ffd9
0006
ffc6
ffe5
0013
fff8
000a
ffe3
ff8b
ffef
ffff
ffc4
004b
ff9b
0019
0004
fffa
fff6
0015
0033
fff6
ffd3
0003
ffde
fffc
ff6b
000b
0004
fff5
ffec
ffe7
fffc
fff5
fff2
001b
ffe3
ffd5
ffc4
0024
0012
ffde
0000
fff3
fffe
ffc4
ffcc
ffd0
ffbe
0019
ffcc
0004
ffd7
000b
fff4
ffe5
0022
ffdb
ffc4
ffcf
fff3
0000
002f
ffeb
ffed
ffd7
fff9
ffe2
0026
fff9
0035
001a
ffb9
ffd3
0007
ffbf
000a
ff72
fff9
ffe1
fff6
ffe8
001d
fff5
fff6
001e
ffe6
ffe5
0010
ffab
ffe6
fffa
0012
ffae
fff2
000e
ffd9
ffe4
0033
ffdb
000e
001d
0011
000a
fff5
0037
ffbc
ffe4
0004
ffda
0035
0027
0008
fff7
0048
ffae
0011
ffd4
ff7e
ffc7
ffde
fff8
0023
ffba
ffdf
0005
0034
ffbf
ffec
0028
ffb0
ffb8
fff7
ffc3
fffa
ffe5
ffb4
ffc6
0001
ffdb
ffe4
ffec
0016
001d
fff4
0006
ffe9
003c
fff5
0010
ffe2
0006
ffc0
0004
0032
0019
0031
ffe3
000c
0007
0005
000f
fffd
ffe6
0033
ffe7
ff79
003d
fffb
0041
0015
001e
ff15
0017
0016
fffa
0005
000c
ffcb
ffa5
fff5
ffee
0036
0041
ffdc
ffe5
0046
001c
0026
ffd5
001e
0017
fffc
000f
000c
0011
ffe8
0012
002b
ffde
0002
0014
001f
ffb7
ffd3
0021
ffaf
000d
000c
ffff
ffed
000b
ffd7
fffb
ff7d
0010
0005
002d
0021
002f
ffff
001d
000e
fffc
fff6
002b
0001
0019
0022
003a
0010
ffea
fff0
000c
0007
007f
fff2
0004
0017
ffef
ffed
ffd5
0031
0007
0017
ffe6
ffc0
0020
000b
0015
0005
ffd8
0014
ffbb
0007
0013
ffe6
fff8
000f
ffed
001c
001b
ffed
fffc
fffd
fffe
001a
0013
0016
0025
ffc2
001f
0028
ffd1
ffb8
001f
000f
000f
0003
003f
0003
ffcb
002b
0009
ffdd
ffce
0015
0006
0001
ffcc
ff9c
0001
ffe9
ffec
ffe4
0000
0015
0004
0000
ffec
0004
fff2
ffcb
ffef
0003
ffe1
ffb7
0001
ffa1
ffe8
0016
000c
ffba
0022
000e
0006
ffde
001a
ffe2
fffe
001e
fff9
fffd
0014
ffd2
0020
001d
fff9
ffe2
fffd
000d
ffed
ffc6
ff6c
0009
ff78
0005
001b
ffc0
0004
ff7d
ffeb
fff2
ffd9
000e
0016
ffec
ffdc
ffe5
ffec
0008
ffbd
001e
fff2
0007
ffff
fff9
fff6
0014
ffec
fff7
ffcd
fff2
fff1
ffc9
ff72
0009
0036
fffb
ffb6
ffec
001a
fffd
ffd3
001d
0026
fff6
ffc1
fffa
fffb
0004
0003
fffc
ff75
0025
0026
0016
ffd1
ffe9
001e
fff2
0020
ffde
0028
ffd1
ff97
0003
0029
ff70
fff7
000c
ffe7
ffe9
ffea
ff6c
ff71
0008
0023
0003
0012
ffeb
0006
fff9
003b
000a
ffdd
ff9c
000d
0002
fffe
ffff
ffe9
fff5
000f
0006
0011
001c
fff4
ffe4
000d
ff6e
001b
ffed
fff5
001d
ffe8
ff6b
ffb4
fff2
ffee
fffc
fff1
ff77
0002
ffe5
fffd
ffe4
ff87
0006
ffff
ff6e
ffea
fff2
0017
0015
0000
ff73
0009
fff5
ffef
fff2
000d
ff6d
fff7
000d
000b
0040
0005
ffe7
0028
0022
0008
0014
000c
0007
0006
ffe6
0022
0028
ffe3
ff80
fff2
fff5
0009
ff8d
0004
ffea
0036
ffd9
ff93
000b
0027
ffac
fff9
ffe6
ff77
ffe4
ffe1
ff76
000b
ffc6
ffe6
ff9e
0003
ffd1
ffde
ffd7
fffd
fff0
0000
000f
ffed
0022
ffd4
000e
0009
0004
ffef
ffed
fff5
ffdf
fff6
fff4
0015
002b
fff2
000d
fff9
0014
0004
ff7e
ffea
0016
ff7b
fff9
0007
fffc
ff78
ffe4
ff9d
ffee
0015
0020
ff6c
0016
ff81
0030
fffd
0011
0002
ffdf
0016
fffe
fffb
ffd1
ffe3
ffe2
ff83
fff9
fff2
0016
0013
ffff
fffd
0002
0008
ff85
fff7
fffe
ff93
fff8
fffb
ff6b
ffee
ffee
ffd2
fffb
ffe5
000a
0029
ffec
ffd5
ffcf
000b
0007
0018
002f
ffe5
ff74
0005
ff74
0021
0040
0006
001a
ffe8
000c
0023
ffdf
0001
0018
0000
ff72
0008
fffd
0012
ffe4
000e
0002
0018
fffd
ffcc
0000
ff8c
ff8a
002f
fffc
fffe
0008
0023
ffed
ffd2
ff7e
fffe
ff99
ffed
ff70
000d
ff83
0016
ffeb
0005
ffec
ffc9
ff7b
0011
0020
ffe8
0021
0013
fffc
ffe3
0025
0013
0037
ffec
ffd5
ffe8
fff6
ff87
ffee
0004
fff6
ff5e
ffe1
ffe0
fff9
ff74
fff8
0023
ffea
ffdb
0010
fff9
0004
ff69
fff4
ffd2
0020
ff78
fff7
0017
ff7a
0008
fffb
ffec
fffe
fff1
001b
fffe
0029
ffe0
fff8
0006
fff0
fff6
ffc4
ffdf
0039
fff7
ffcf
ffdc
fff1
fff4
ff6f
ff7f
fff8
0007
000c
ff6a
0018
0019
ffe0
0010
0033
0004
ff84
ffb0
000e
ff74
0010
ffe6
ff75
0009
ffec
ff77
fff4
ffbc
ffcb
0002
0011
0005
001a
0014
ffe1
002c
0023
0010
0000
ffec
ffcf
fff5
0027
000c
001c
ffee
0017
000e
0015
0012
fff6
001d
ffb7
ffe8
ffb6
ffe8
0018
0003
ffe8
fff3
0001
fff8
ffe6
ffd6
fff6
ff7b
fff9
ffef
fff8
0011
0011
fffe
0003
000e
000f
0023
0010
0044
ffeb
ffe7
fff8
ffe5
0005
fff9
ffed
ffdc
0003
001b
ffe3
ff7f
0007
ffe0
0015
0012
002a
0019
ffe9
0007
0001
0002
ff95
001b
ffe3
001c
000c
001b
0016
fffa
000b
001d
ffff
000d
0000
fff9
0007
ffea
fff7
ffcf
ffee
0022
fffe
ffd5
0015
001b
ffc5
0007
0022
fff6
ffd8
fffb
000e
000d
ff7a
ffec
fff4
ffe4
0010
ff75
ffb8
fffa
ffd0
0007
fffb
0022
0000
fff8
fff2
0018
fff3
0017
0016
fff3
0008
000d
ffec
001c
ff72
fffe
0028
ffa3
ff77
fffb
0006
ffe3
ffce
0011
fffc
001a
ffff
0008
0000
ff7c
ffe5
0006
fff8
0022
fff7
0005
0015
fff5
fff5
000a
0003
fff6
002d
0020
fff8
ffe7
ff75
fff2
ffeb
fffb
fff1
ffff
ff6b
0001
fffa
0003
fff0
fffc
ffec
0008
ffdd
000b
0000
0013
fffc
ffcc
0011
0011
001b
ffe2
fff3
000d
fffb
000b
ffb1
ffeb
ffbd
ffc3
ffe6
ffd1
ffdc
0009
ffd7
fff9
ffdb
002e
fff8
ffec
001c
0014
0024
ffb9
ffd8
ffe2
0007
ffbd
001d
fffe
fff3
000b
000e
ffd2
000d
ffc5
ffe1
ffda
fff7
ffd8
ffe6
ffcc
0033
0004
ffde
ffb8
fffa
ffce
fff3
0010
ffd3
001d
fffc
ffe2
0013
ffcf
ffd2
0017
ffdf
ffc5
ffd4
fff8
fffc
ffce
ffe2
0021
0019
ffda
ffcc
000b
ffe5
ffe0
ffd4
0023
ffc4
ffee
fff9
ffde
ffd0
ffd1
ffc3
ffc7
0046
ffe5
ffbf
0013
ffec
fffe
fff8
000c
ffd5
ffc5
ffe1
ffe8
ffd6
0000
fff9
fff4
ffed
fffa
fff4
0010
ffec
ffc9
ffce
0051
ffc5
ffce
ffee
ffd5
ffe0
fff2
ffc7
ffd4
ffdf
ffb8
ffee
ffdb
ffca
ffbe
ffdb
ffe6
ffac
ffcd
ffed
ffd4
ffc9
fff2
ffe8
ffd8
0022
ffb5
ffcb
0006
fff1
ffd7
fff1
000a
ffc6
fffc
001d
ffef
002d
0011
ffcd
002e
0021
fff7
ffff
0024
fff1
000a
ffe9
ffff
0015
0007
ffcf
0002
0020
ffea
ffd7
ffe9
ffe5
ffd0
ffcc
ffee
0006
0008
ffd7
ffd7
000b
ffcc
ffeb
fff5
ffc5
0002
ffa2
ffaf
ffe0
ffe7
ffb5
ffd8
ffe4
ffe1
ffcb
fffc
0005
ffee
ffed
ffce
0025
000c
ffe1
ffe5
ffdc
0001
ffdc
ffec
ffa9
ffd3
ffc9
ffe0
ffca
ffe9
001d
0013
ffe2
fff4
ffbb
ffcc
000d
0015
ffd6
ffd2
ffef
ffd6
0017
fff1
ffda
ffc3
0024
ffcf
004a
ffed
000f
ffe6
ffd4
0012
ffe2
fffc
ffef
000c
ffce
ffd1
ffda
ffd6
003f
0019
002e
ffd6
000d
ffdf
ffca
ffed
ffe1
ffe3
ffde
002c
ffc5
ffb1
ffe6
ffd1
001f
ffe5
0014
0040
0013
ffb0
ffbd
ffeb
000a
000b
0034
ffd6
ffc9
fff7
ffc8
ffe6
000f
0000
0003
ffea
ffe6
fff6
ffed
ffcb
ffe5
ffed
ffc4
001c
ffe6
fff9
ffe9
fffe
0002
fffc
ffb0
ffe8
ffb6
ffd8
ffe1
0046
0015
ffe9
0021
0015
ffdb
fff0
ffce
ffe5
ffcf
ffc6
ffc8
001c
ffcf
ffdc
ffd7
ffce
ffec
ffc7
ffd1
ffe6
fff7
ffe1
0013
0035
ffe6
ffb5
ffd1
ffde
0006
ffc8
000a
000c
fff6
ffd5
ffeb
fff6
ffde
ffbd
ffe4
ffbc
fff4
ffcb
001a
fff5
ffec
ffe4
fff3
ffd5
0003
ffc7
ffd1
ffea
0036
ffd0
ffe3
ffd5
ffd5
ffe9
fffb
fff7
ffed
ffd0
0037
ffe7
005c
ffff
ffe8
ffe8
fffb
fff0
ffa0
ffad
ffeb
ffe1
ffc7
ffc7
ffb4
ffe5
ffc7
ffcd
ffe5
fffa
fff3
ffbf
0015
0035
ffed
000a
ffe6
000f
ffd4
ffd3
ffcc
ffc9
fffb
ffe3
ffcd
fffb
fff2
ffcd
000a
fff4
ffa1
ffe9
fffa
ffef
000c
ffe6
ffe6
ffdb
fffe
000d
ffe8
ffca
ff96
ffe1
ffce
fff9
ffdc
ffee
0039
fffc
002c
ffca
ffeb
ffe4
ffd5
ffaf
ffae
000b
000c
fffc
ffe8
fff1
0007
ffd9
ffcb
ffd8
fff2
ffc5
0010
ffea
ff9b
ffbd
fffe
ffe5
fff8
ffcc
ffb1
0011
fff6
ffe4
0005
ffec
fffa
001a
001f
001a
0008
ffc0
0027
000b
fff9
ffc4
ffe9
ffb4
0000
ffca
ffd5
003d
ffe3
ffe5
ffdc
ffef
ffde
0016
ffc5
0018
000e
ffd9
fff7
ffd6
ffeb
ffe4
ffcc
fff4
fff2
ffef
ffec
ffea
fff8
fffd
ffee
ffca
0002
ffaf
ffe2
ffe9
ffad
ffc0
0059
fff3
ffbb
ffe2
0009
0016
ffcd
ffb1
fffc
ffe7
ffe3
ffd0
ffa0
ffb1
ffc8
fff1
001c
0016
ffdf
ffea
001d
ffe4
fff5
ffdc
fffc
fff8
000d
fffb
000b
ffd1
ffd4
ffda
ffe9
ffb0
ffcb
0004
ffcd
ffba
ffc4
0007
0001
0027
ffb6
001a
ffeb
ffca
ffd1
ffed
ffed
ffe7
ffd9
ffff
003d
fff9
fff5
fff1
ffe2
0024
ffcc
0047
000c
ffd1
ffd0
fff4
ffc7
0008
ffd7
ffa1
ffbe
fffe
000e
0002
ffd7
ffff
ffbb
ffe2
ffe4
001a
ffe8
0006
000e
ffc9
ffe3
ffda
ffc0
000d
ffea
001d
ffe4
fff8
ff87
ffa7
ffcb
ffae
0010
0003
0027
ffa0
ffc5
ffd9
ff98
0026
fff3
001c
0001
004c
ffeb
ff9c
ffd4
ffee
0008
003c
0017
fffa
0023
0005
0012
0001
fff2
ffc3
002a
000c
0017
0007
ff63
fff9
0007
000c
ffec
ffa7
0005
ffe4
0037
fffb
ffcd
0000
fff5
fff3
fff4
ffe6
0051
fffc
fff3
ffec
ffe1
0012
ffef
0000
ffff
fff6
0034
ffe9
ffd5
001d
ff9a
ffa4
0023
ff91
ff90
ffeb
000e
ffe6
fff9
0019
ffe1
ffd6
fff2
ffe9
0026
ffeb
fff2
ffef
fff9
003e
0020
0038
ffee
001c
0006
fffc
fffc
ffc8
ffef
000c
ffd4
fff3
ffe9
0002
ffee
0005
ffbc
000b
ffe2
ff57
0021
fff5
ffb4
0013
000f
0012
0001
fff6
ffdb
0040
ffc9
001a
003a
0012
ffee
0000
ffb3
ffd8
ffde
002d
ffd7
0000
ffc8
fff8
ffee
fffd
000c
0025
ffb9
002a
ff79
fff8
fffd
000d
ffee
ffba
fff0
002a
ffe4
fffc
ffd3
0000
001c
ffef
0009
0004
fff3
ffe8
ffe3
ffbb
000c
ffde
fff1
fff5
000d
0015
003d
000c
fffe
0029
000b
fff7
ffd6
0005
fff4
ff97
0036
001f
0007
0010
0018
0037
ffbb
ffe7
ffec
0007
000c
0013
ffd9
0000
fff8
001c
fffc
ffe9
fffc
002a
fff3
ffe9
fff7
002a
000b
ffe8
0026
001a
ffd6
ffd4
ffb1
ffda
0030
ffe4
0006
007a
ffc7
fff5
001c
0008
ffab
fffc
ffc7
ffcd
ffdc
fff6
fffd
ffe7
0003
ffee
000d
0009
0007
fff4
ffe0
ffca
fff2
ffae
003c
001e
0003
ffb1
000c
ffec
0010
0007
ffbf
ffc7
ffc9
0004
fff7
0031
ffb5
004a
ffd7
002b
005b
ffcf
0003
ffbd
ffdc
0020
fffe
000b
ffe3
ff7c
ffe8
fffd
ffdd
004c
ffc0
001e
0000
fff8
ffeb
0012
0030
fff1
ffbf
0002
ffd5
fff2
ffae
000b
0008
fff6
ffec
ffe6
ffff
fff4
fff5
0024
ffd4
fff7
ffcf
0028
0018
ffdc
0003
fff1
0005
ffba
ffdc
ffc4
fff2
001c
ffe7
0008
fff5
0006
ffea
ffce
0024
ffee
ffdb
ffc6
ffef
000a
0036
ffed
ffda
ffe0
0003
ffdc
002f
0002
0035
001a
ffa6
ffe3
0014
ffb2
000b
ff96
fffa
ffc6
ffff
000e
0020
fff5
fff8
001f
ffe4
ffe6
0016
ffbc
ffe7
fffa
000e
ffc5
fff1
000d
fff2
ffe0
0037
ffd7
0004
0012
0010
0011
fffc
0032
ffb4
ffdf
000c
ffd4
0046
0034
0017
fffa
0042
ffa4
001a
ffcf
ffbc
ffc0
ffdc
fff8
002f
ffe5
ffd0
0007
0042
ffb6
ffea
002e
ffd2
ffdd
ffea
ffbd
fffa
ffd2
ffb6
ffc3
0009
fff5
ffdc
ffee
001f
0018
fff7
fffc
ffe2
0050
fff6
0010
ffd6
0005
ffbe
0003
0037
0018
0030
ffda
000c
000d
000b
0011
0003
ffdd
002b
ffeb
ff8a
0047
0005
0051
0016
0025
ff05
0013
001d
0001
0000
000f
ffc2
ff94
fff3
ffed
003f
003e
ffda
ffdc
0049
0015
0034
ffd4
0014
001d
fffd
0014
0017
0010
ffd6
0014
002d
ffd6
fffe
0019
000e
ffde
ffcb
0021
ffa0
0003
0011
0005
ffe7
0012
ffcb
fffc
ff94
001c
000e
0029
0017
0035
0002
0022
0010
fffe
ffff
0029
ffff
0018
001f
0047
0013
ffee
ffe4
000a
0003
007f
ffe2
000c
0025
ffdc
ffe7
ffd3
0033
000d
0028
ffce
ffd0
0024
0010
0014
0001
fff0
001d
ff99
000e
000f
ffe1
0000
0016
ffdc
0023
0026
ffef
fff3
fff6
fffc
0021
0011
0009
0035
ffd7
002c
0030
ffd9
ffc1
001f
0013
001b
ffff
0040
0003
ffa4
001f
fff5
ffd7
ffed
000f
0002
0003
ffcb
ff9e
fff6
ffdf
ffe1
ffe5
ffef
0011
fff7
0004
ffed
0008
fff7
ffe6
fff2
0008
ffdf
ffae
0008
ffd1
ffda
0018
001f
ff9f
001a
0018
fff8
ffd1
001b
ffe4
fffc
0016
fffa
fff9
001c
ffbd
002c
0017
fffb
ffd9
0002
ffd9
ffd3
0029
ff5f
fffa
ff8e
0019
ffcd
0001
fff6
ff84
0016
ffee
0004
0005
0019
fff9
fffd
ffde
fff0
0026
0041
000d
0000
0018
000a
000c
002b
0003
fffd
001a
fffd
0027
0007
fff1
ff93
fff4
0006
fff5
fff0
0003
ffe8
002c
fff5
000a
0023
ffff
ffed
fff9
0007
003e
0001
ffea
ff8c
ffe5
fff4
fffd
fff4
fffc
0012
0017
ffec
fffc
0014
ffda
ff93
0043
ffae
ff40
fff3
0016
ffdd
ffef
003b
ff7c
ff54
fff6
0004
0038
fff2
fff8
fff3
0004
003c
001f
000c
ffc1
000b
0010
0020
fffe
fff4
fff0
0019
ffd7
0019
0000
0010
000e
fff6
ff5d
0008
ffe7
ffb9
004b
ffee
ff2f
ffec
000a
000f
000b
ffe9
ff81
0032
ffde
0018
0022
ffaf
fff6
0005
ff6c
ffe3
ffea
001d
fff0
001d
ff7f
0003
fff7
fff6
0004
0022
ff7a
0019
ffaa
0010
fff9
000a
fff0
ffd0
fffa
0019
fffe
0000
0015
fff9
001d
ffee
000c
fffa
ff89
ffe0
ffef
ffc6
ffaf
ffe9
fff8
ffe8
0014
fff7
0011
0020
ffc7
0021
0007
ff9c
ffe7
0000
ff95
ffec
003e
fffb
ffd1
000d
0004
0029
ffea
ffe8
ffe9
000e
0007
0007
0019
0017
ffe0
000a
0008
ffec
0000
0022
fff3
fff8
0029
0019
fff8
fff8
0011
0014
fff2
ffee
ffb9
ffca
0023
ff83
0008
003e
ffe4
ff8e
0016
ffc7
ffc5
0029
ffd6
ff64
ffef
ffa2
ffec
ffe8
000d
fff8
003a
0001
0010
fffb
ffff
ffe2
ffed
ff75
0037
0023
ffea
fff1
ffdc
fff5
000b
000b
ffa1
ffd0
ffde
ffbb
ffee
001f
ff48
0021
ffea
002a
0033
ffe9
0014
fff3
fff4
000f
fff8
0012
fff6
ff94
ffde
0015
ff7d
0044
ff8a
0005
fff6
fff1
000f
0020
0013
fff4
ffd1
0000
ffd0
fff2
ff56
fffb
000c
ffee
fff1
fff8
fffc
0001
ffed
0029
fffe
ffa5
ffa0
001a
000d
ffde
fffb
fff9
0002
ffd6
ff8c
fff3
ffb2
0013
ff73
fff7
ffa2
0037
fff8
0014
0021
fff3
ff7c
ffdc
000c
fff7
0021
ffed
fff5
ffed
fffa
fffc
0018
0011
004f
001b
ffec
ffab
0002
fffd
fff7
ff24
fff5
ffd6
ffff
ff9b
0011
fff1
fffc
0017
ffed
fff6
0017
ff67
fff2
ffe5
0009
ff80
0006
0037
ff8f
000b
002f
ffe8
000b
0025
0012
0013
0002
0017
ffc8
ffe9
fff9
ffde
0031
0014
000e
fffb
005c
0016
000e
ffd2
ff7d
ff97
fff5
000b
001c
ff68
ffea
ffdc
0022
ffcf
ffe6
001c
ff9e
ffb9
fffd
ff6e
fff6
fff9
ff7b
ffdc
fffb
ff90
fffb
ffd9
000b
0032
0002
000c
ffd6
003c
fff3
0000
0008
000f
ffce
0000
0011
0018
0022
ffc7
0026
0013
0013
0006
0002
fff9
002a
ffee
ffe5
002a
ffe4
0011
000a
001b
ffbe
000f
000e
0002
001d
ffec
ffd6
ff55
fff2
ffe8
0036
0040
ffee
fff9
004d
0008
0011
fff7
0033
0019
fff8
0005
0007
0006
ffff
000c
0012
fff8
0002
0012
006a
ffa2
ffd4
0033
ffdb
0036
000a
fff3
fff9
0006
fff1
fffe
ffb5
0001
0007
001e
0013
0057
fff7
002d
0005
fff5
000d
0016
000e
001a
0017
002a
001e
0026
fff6
0010
001a
007f
fffe
000e
000d
0023
ffe6
ffdd
002c
0006
0009
0004
ff74
001a
000e
0013
ffed
ff8c
fff6
ffed
fffe
0021
ffe8
fff5
0009
0009
0021
001b
ffe5
fff8
fff3
0000
001d
001a
0022
000a
ff72
0026
0057
ffe1
ff67
001d
001d
0017
fff9
0026
0016
ffef
0021
0011
0009
ff95
000f
0015
000b
ffc3
ffdd
fff2
fffa
fff4
ffe4
ffff
0007
000b
fffd
000c
0007
fff3
ff89
ffef
000a
ffef
ffcc
0006
ff8a
0000
0017
fff4
ffdb
0022
000c
0019
ffe1
001a
ffef
0004
0024
fff8
0004
0015
fffe
0011
0012
0000
ffe3
0009
0030
003f
007f
ff6a
0008
ff22
ffea
0033
0034
0017
0015
fffe
fff6
fffe
ffe7
0067
0035
0065
001f
fffd
000d
ffe9
ffdb
fffd
fff4
fffd
0007
ffe4
fffc
0020
ffcb
000b
ffe1
fff3
007f
ff50
fff7
ffee
000e
007f
ffe7
fff9
0000
001d
0035
ffde
ffd3
002e
fffd
003b
fff5
0013
0000
ff74
0009
000a
0002
0001
0008
ffe7
fff7
001a
0021
ffe4
0071
ffff
0020
0024
ff44
0001
ffd7
0002
000f
ffea
ff60
ff4f
0030
0022
ffe3
0020
fff4
0005
fffb
ffd9
ffec
0019
fff9
ffeb
ffd8
ffd1
000a
0024
0001
ffe2
001e
fff3
ffd1
001a
0013
0016
ff49
ffea
0006
007e
ffe9
0023
ff5a
0002
0028
000c
0005
0024
ff43
ffea
fff2
0002
0028
ff70
000d
0004
ff91
0022
001a
0024
001b
ffeb
ff90
0005
ffff
0013
fff0
fffe
ffa5
ffce
0078
fffb
ffe0
fff7
0012
0030
0004
ffd3
0017
ffee
002d
ffe5
fff4
0002
0005
0003
ff99
001f
0002
0003
ff6b
0018
0011
0004
001e
0054
000b
ffdb
fff3
ffdc
0048
ff5e
0016
ffec
ff80
000e
0009
0003
ffd7
000d
0022
fff3
0038
0005
0012
ffee
fffc
ffe1
0021
0024
ffee
0000
fff9
000a
000c
fffd
ffff
002f
fffc
ffc5
000d
0019
ffd9
ffcf
ffbb
fffc
fffd
ffb5
ffe3
ff5f
fff5
0000
0034
ff14
ffda
fff9
0051
fff5
0024
ff6a
003b
ffb5
0005
ffff
fff3
0029
0014
fff2
0000
fffb
0038
0012
0019
ff98
ffd9
ffc9
fff1
0015
0047
0015
0009
0001
ffed
001b
0010
ffb2
fff4
fffc
ff91
fff0
0017
0004
ffe4
fffb
ffd6
002c
003d
ffec
0013
fff8
000d
ffee
ffe1
000f
ff69
ffcb
ffce
ffc8
ffd0
0006
fffe
ffff
ffae
ffe9
0021
fff1
0019
fff8
ff93
fffb
ffd2
0005
0020
0014
0013
fff3
001e
fff9
0004
ffa5
0008
ffe5
fff2
0017
ffe5
ffe7
0007
002b
ff95
002e
ffd4
ffff
ff27
0021
ffa2
ffe4
0002
0029
0006
004d
ff6c
fffb
0008
0015
ffd0
fffd
fffe
0031
ffff
003b
ff9d
0038
006e
fff3
000e
ffcc
0003
0025
ffe5
ff82
003a
fffe
0030
ff35
fff3
ffee
fff8
ffea
0018
0013
fff7
ff3f
fffa
fff1
ffdb
ff68
0002
fff8
ff66
000b
ffd3
001c
fff0
fff0
ffec
fff4
0028
ffce
002d
0022
0000
fffa
0021
0028
ffe8
fffc
ffe9
004b
0010
0001
ffca
ff96
001c
ffd7
ffe4
ff37
fff4
000a
003a
0027
fffd
ffdb
ffaa
0005
ffdd
ff33
ffed
001e
ff55
fff1
fff8
ff6b
0002
004f
0013
fff4
0016
fffb
fff1
ffdd
000d
ffd4
fffd
0012
0019
0001
ffdc
fff0
ffb0
0024
0000
000a
fff7
fff3
0018
fff8
ffdc
001d
004d
ffd0
001c
ffd1
ffef
0002
007f
ffc8
0005
0027
fffa
0021
0026
ffbc
0004
fff7
ffeb
ffd3
000a
fff8
ffe5
ffe7
ffdb
002d
ffe1
ffe8
0041
0004
0005
fff3
ffe8
fff4
ffcc
0013
ffd9
ffee
0056
ffcf
fffe
000f
003f
ffdf
fffb
fff9
002b
0019
002b
0001
001b
fffc
000c
ffc4
ffe2
0020
0017
ffd9
ffd6
fff1
001b
ffdf
0002
fffb
ffd3
0002
fffc
001b
fffe
0004
ffe9
ffe3
fffe
0013
0028
fff3
0014
000b
ffea
0012
001a
ffc0
ff74
0023
ffe4
ffe9
000a
ff51
0012
0039
0013
ffe1
0004
fff7
ffe5
0023
ffef
000b
fff9
fffa
ffd6
0027
ffea
0002
ffee
ffd6
ff70
ffcd
ffdc
ffc2
ff49
ffe9
ffe3
0016
0010
ffc1
0006
ffe1
ffcc
ffc5
0031
ff7c
ffef
0009
000d
000c
005d
ffd2
fff3
fff1
0007
ffe1
ffd7
fffa
0005
0014
0000
0006
ff57
0013
0011
000d
0051
0006
ff72
000d
fff3
0042
0037
ffee
0012
ffad
002c
ffd9
fffa
fff3
ffc5
002f
ffca
fff7
0032
ffee
0001
0008
002e
0009
ffd9
ffee
ffb4
ff67
0014
ff80
0000
0024
ffbc
0020
ff97
0013
fffa
0008
fffc
0054
0011
ffb3
0008
0003
0000
ffc0
0000
fffa
ffff
fffb
0006
ffc0
0007
fffc
fff3
ffe4
ffdf
ffe6
ffd1
ff7c
0007
0014
0005
ffc6
ffe3
0014
0018
ffe8
fff2
fff4
ffdb
0007
fffd
0027
0005
0011
0014
ff73
0020
003d
0019
ffe2
0004
ffe7
0020
0023
ffeb
000f
ffe7
ff8e
0008
0017
ff6c
fff9
fffc
0003
0007
ffd5
ff66
ff80
0021
0020
ffd9
002c
ffed
000c
ffee
000b
0009
001b
ffa6
fffa
ffe9
ffd9
000d
fff6
0005
fffe
001d
ffed
0003
0007
ffe3
0016
ff6e
000e
0001
ffef
ffdb
0018
ff6d
ffc9
0010
0001
0008
0029
ff71
fffc
ffdd
ffed
0009
ff8b
001a
fffb
ff74
ffff
0006
0022
0012
ffdb
ff70
0004
fff8
0024
fff6
001d
ff69
fff1
004b
fffc
0000
0007
ffe0
002f
0019
ffe1
0009
fffe
ffed
fff2
ffec
000a
002f
0006
ff77
0020
fff1
000b
ff86
000d
ffe0
002a
fff7
0007
0035
0000
ffb0
0001
002c
ff77
0004
ffd8
ff78
ffc2
ffcf
fffd
ffb5
0005
0005
fff7
ffed
000d
0015
0006
0021
ffff
ffe3
ffd4
001f
0019
fff7
0013
0004
000e
ffe7
0012
ffc4
0004
002e
0008
0006
fff3
ffe1
fff2
ff84
ffed
000a
ff76
fffa
004a
000b
ff78
ffdd
ff9d
0024
ffd6
0032
ff68
0028
ff83
0032
fffc
0003
000b
ffd3
002a
000a
fff1
fff2
fff2
fffa
ff76
fff5
ffd7
0021
ffde
0033
0012
0010
0005
ff8e
0015
0011
ff95
fff2
0009
ff73
ffeb
fff2
ffef
000b
ffec
ffe7
000c
0007
ffc6
0000
fff9
0000
fffc
001f
fff7
ff6b
ffe9
ff6d
fff4
0017
0018
fffb
fffc
fff9
0010
0000
fffe
0049
000e
ff6c
001a
ffe2
0008
fffb
000c
0010
0020
000b
ffc9
ffd8
ff8b
ffac
002b
0006
001b
fff9
0005
0003
ffee
ff7a
fff3
ff85
0005
ff7d
003b
ff84
ffdb
ffee
ffd6
fffe
ffef
ff75
fffc
000a
000f
0003
0006
0003
fff0
0022
001a
ffe9
ffee
000f
ffed
ffdc
ff91
0017
ffd4
0002
ff75
0016
fff5
0017
ff83
0000
0017
fff7
ffe6
000e
0009
fffc
ff69
ffe8
ffcc
0016
ff64
fffd
ffd4
ff7e
000f
ffdf
0002
fffd
ffe5
0012
fff5
0027
ffdf
001b
0015
0007
0006
fff9
0014
000b
0001
ffc7
ffb1
000c
0003
ff78
ff71
fffa
ffe1
fff5
ff6e
0002
0025
0036
0039
0026
fffe
ff80
ffa7
fffc
ff72
000f
fff5
ff68
0000
fffd
ff7a
ffdf
0007
ffe4
fff4
0023
0000
0005
0015
0009
0011
ffdd
000c
000e
fffd
ffc3
0007
fff1
0029
0013
fffe
0009
001a
0027
fffc
ffef
0016
ff8d
ffd2
ffe4
0004
0012
0013
ffcf
ffdb
0024
0009
ffce
fff4
000e
ff73
ffff
0001
ffdb
ffe6
0001
ffe4
ffe1
000c
0002
000f
ffd8
001a
0021
0003
001a
fff7
ffd5
0001
fff7
ffe5
ffe7
000c
ffe0
ff6f
0013
ffef
fffe
ffd1
001e
001b
000c
001a
001d
0017
ff84
0014
ffff
fff9
0002
fffa
0020
fff1
ffde
0014
001a
000a
000d
000a
fffb
fff8
ffed
ffa9
ffea
000b
ffec
ffeb
0010
0024
fff6
ffcc
0025
0009
ffe0
000a
002c
ffcb
ff72
0002
fffe
ffd9
0025
ff76
fff6
ffd7
0005
ffe5
000b
0024
fff0
fffd
ffef
001f
0003
000e
0004
000f
fff6
fff0
ffde
000b
ff7b
ffea
ffe1
ff74
ff75
ffff
ffdc
fffe
fff7
0005
ffe4
ffda
ffd9
ffce
fffc
ff7d
ffe7
fffb
000d
0038
ffe9
0008
fff3
ffee
000c
0009
0002
ffec
001f
001d
ffff
fff6
ff6e
0009
0002
fffb
001c
fff9
ff62
fff8
fffe
0031
0011
ffe1
ffff
ffd0
000c
fffa
0002
000c
ffaf
fff8
ffff
000b
fff3
ffee
0016
000c
0031
000b
0007
003b
0059
ff2c
ffed
ff03
ffe5
0007
0020
fffa
ffbf
fff1
fff5
fff1
ffe9
000c
0025
0038
000e
fffc
0019
fffa
ffdc
ffed
fff3
0001
fffb
0014
ffef
0014
ffd1
ffe7
fff6
000c
002d
ff11
0004
ffe1
fff4
0033
fffc
0001
fff9
002b
000a
ffda
fff2
0024
0005
ffee
fff7
0008
fff8
ff47
ffe7
ffea
0000
ffe7
fffb
0001
fffc
0009
000e
ffd3
000a
ff9f
fff7
0013
ff0f
0004
ffdc
fffe
000d
0011
ff24
ff20
0029
0006
fff3
0009
ffff
0008
0002
ffcb
fffd
0007
ffbe
fff5
fff9
ffeb
0004
001c
fff9
fff7
ffff
0018
ffd1
0005
0017
0011
ff14
ffe5
0006
002a
0001
0007
ff23
ffe2
000c
ffeb
0004
fff8
ff0e
fff3
fff1
0000
002d
ff4e
fff3
001a
ff35
000a
0007
ffdf
0006
0002
ff54
0001
0003
fffe
fff0
fff8
ff50
fff8
000b
000b
ffed
fff9
0000
0003
fff3
0004
0000
fffb
001c
ffe9
0001
0005
ffe1
ffef
ff5b
fffd
0020
fff1
ff34
0001
0012
ffde
0009
0028
ffe4
ffd8
ffd6
ffea
0024
ff29
0004
001b
ff4d
ffed
000b
0003
ffb2
fffe
0006
0002
ffee
fffb
0001
fff4
ffeb
fff6
000c
0005
fff0
fffb
0007
0005
fff9
fff7
fffe
0010
0004
ffe4
fff8
0000
ffef
fff7
ffcf
0003
ffc0
ffc5
ffea
ff23
fffc
ffe6
0005
fef7
fff0
ffc1
0039
ffff
0002
ff39
0001
ff78
ffe8
fff8
fff6
0018
fff8
ffed
fff2
000b
0032
0035
ffff
ff3e
ffe0
0001
ffef
0036
0023
fff7
ffff
0002
ff90
0004
000c
ff86
fffd
fff7
ff49
ffef
001f
ffff
ffec
fff3
ffea
000e
0026
0006
0006
ffe0
0004
ffe1
ffe0
0015
ff28
fff1
ff75
fff9
ffd4
0009
fff9
fff0
ffd3
ffe3
0012
fff8
ffe2
fffe
ff45
fffe
ffed
0003
0009
fffb
0005
ffd5
000d
fff4
000a
ff61
ffeb
ffb8
fff4
ffff
ffe6
ffe6
fff7
001e
ff50
000c
ffa1
ffdc
feff
000a
ff70
ffd1
0002
fff1
0011
fff9
ff19
ffff
ffe3
000e
ffd3
fffe
0001
0003
ffeb
0012
ffd5
0016
0032
0002
002a
ff74
ffee
000b
fffc
ff43
0020
0016
fffe
ff1b
0000
ffce
fffa
0003
000e
0008
ffed
ff15
000b
fffc
ffd0
ff30
0008
0001
ff24
ffeb
fffa
0006
fff4
ffff
ffe8
fff2
000b
0002
0011
000b
0003
fffb
ffff
0019
fff3
fff6
0011
0024
fff1
fff9
ff7e
ff55
0008
fff4
ffff
ff17
ffed
0000
fffc
ffef
ffdd
ffe3
ff59
ffbd
fffc
ff05
ffdc
0020
ff19
ffdc
fff8
ff2f
0016
003d
001e
0002
fff1
fffd
0002
ffcb
0006
ffca
0010
0009
ffff
fffa
0012
fffb
ffc9
fff4
ffe6
0002
fffd
fff3
fffe
ffee
0000
ffd1
001c
fff2
0013
ffda
fff9
fff7
002d
ffef
fff0
0006
000b
0019
000d
ff70
ffff
fff9
fffd
ffff
000d
0009
0017
ffed
ffe3
000c
000c
ffc9
0023
0006
fff6
fff5
000d
fff9
ffea
fff7
0005
ffde
0029
ff88
fffc
fffc
001f
ffed
ffee
fff6
000d
0001
0001
fff8
ffd8
fffd
0007
ffd9
fffc
0005
0007
ffeb
000a
ffe7
fff6
ffeb
fff7
fff9
ffd2
0004
0013
0004
0009
000e
fffb
ffdf
ffea
ffe6
001a
000f
0016
0001
0009
fffd
0007
fff0
ff22
0018
ffeb
fffd
fff7
ff2c
0005
001d
000d
fff4
fffa
ffd6
fff9
0013
000d
fff0
fff8
0008
ffd1
001f
fff3
0004
000d
ffef
ff26
ffdb
ffcf
ffec
ff00
fff4
ffec
fffb
0005
ffe5
0014
000d
0000
0004
0023
ff3f
0004
fff3
0003
ffec
0015
ffee
0006
0006
fff6
fff7
ffea
0026
fffe
fffb
ffff
fff0
ff17
0000
0004
0006
002a
0003
ff4e
0010
0000
000e
0021
001c
000c
ffd6
0012
ffdf
ffeb
ffef
0027
0008
ffdc
ffe7
ffe8
fffb
000a
0008
0004
ff8f
ffe5
ffb5
0005
0003
005e
0003
0017
ffea
fffb
fffc
0008
0021
fffc
0021
ffdd
004c
ffc0
0017
0005
fffb
ff69
fffe
ffd0
0006
0006
ffcd
fffb
ffe0
fff9
0017
005a
000e
ffe5
ffd4
fffa
ffff
ffb7
000a
0003
0014
fffa
0012
ffd3
ffc6
fff1
fff1
0018
fff2
ff97
0000
007b
ffb2
0008
0002
0026
001a
fffa
000c
000a
ff3a
fff1
0006
0022
ffff
0007
0005
0036
0054
0002
0007
fffe
fff6
001e
0026
0001
0002
ffa7
001d
007f
fff4
0005
0005
0011
0032
0025
004e
ffff
001d
ffe8
ffec
ffc3
ffe7
0011
ffc3
fffe
ff7b
0003
0033
0000
ffdf
0000
003a
fffe
fff4
001e
0021
0001
0008
0011
0009
fffc
fff8
0001
003e
ffec
0047
005b
0006
0018
fff4
0001
002f
000c
004b
002f
007f
ffff
fff5
0007
0006
0024
ffcd
0000
0006
0008
ffc5
0017
ff85
0022
002c
ffba
fff9
fffc
ff91
0012
0008
001c
0010
0048
0024
0002
ffc0
ff8b
001b
0006
0013
ffd5
0061
fff7
fff7
0016
0072
0000
ffe4
fffb
0001
fffb
ffdd
0001
ffd7
0003
0051
0003
0034
0028
0002
fffe
0011
0019
000e
0032
ffdf
003b
fff6
0009
001e
ffe8
fffa
0003
ffd9
fffc
000a
006c
0035
0043
0019
003e
ffea
ff7e
ffbd
000b
001f
007f
0007
0003
000c
0008
0000
0009
0004
ffb6
ffff
0038
0004
fffc
0001
0027
0022
ff76
0010
fff7
ffdb
ffe6
ffc1
ffc1
ffb9
0009
0000
0032
ffcd
001b
ffeb
0034
001e
ff8c
0019
0006
000a
0002
fffe
0042
fff7
0004
001c
fff1
0004
0023
0000
ffdb
0028
ffd9
0071
002e
004b
ffcd
0028
0015
ffd0
0004
ffe7
fffa
0024
007f
ffdc
ffeb
0031
ffe4
0077
ffe8
000a
0032
ffe7
0002
ffe3
0025
0018
fffd
001d
ffc3
001d
0075
0004
0013
ffff
0006
0036
ffe2
001e
fff9
ffbe
0025
ffe2
0003
002c
0002
005a
0003
ffc9
0000
002b
ffeb
fff8
001d
0005
0001
0019
0071
fff8
ffcf
ffcd
0007
0001
005b
0037
0058
0013
0008
ffaf
0007
0005
0024
ffeb
001e
0003
0016
ffeb
fff9
0002
ffbf
fffd
0009
0001
fffc
0001
ffeb
0003
0048
0008
0045
0001
003c
001d
0000
0002
fffe
0018
001d
003c
0035
0036
ffe7
ff9c
0004
0010
fff7
fffe
0022
0022
0032
fff5
ffe2
fff6
0004
0006
0005
0001
000b
0028
001d
0002
000c
002d
0032
0004
006c
ffad
0004
0003
001c
0000
0009
0009
fffe
001e
002a
0002
ffeb
ffe4
005a
0006
ffc7
000c
0020
0038
fff6
002b
fffc
ffd7
0019
000c
0031
ffee
007f
fffe
001e
ffe5
ffe7
ffff
fffd
0063
ffb6
0010
fffa
0073
0072
0008
000a
ffca
ffdd
0012
ffc1
003c
ffd8
0027
0010
0004
0008
fff9
002a
000f
0036
0004
ffe7
0020
005b
0022
ffd2
0042
ffe3
ffff
fff5
0031
ff6d
ff87
000c
fffa
ffb9
ffe8
001f
0001
fffd
003d
002c
001e
0014
ffea
001e
0047
0008
ffc0
000d
001b
001c
ff9c
0049
0064
0035
fffd
0034
0017
002a
ffdf
ffd0
fff0
000c
0016
000d
fffc
000b
000e
ffc8
004b
000b
001c
004a
0023
ffeb
0003
0009
0020
0041
ff57
0002
0024
0016
ffff
000c
0002
007e
ffe1
0018
ff97
fff5
0004
0031
fffb
ffe6
0021
ffff
001b
ffdd
ffcf
fff9
0032
ff7d
0043
0001
0034
0043
0004
0001
ffa3
007f
0017
0017
ffb0
002b
ff9c
0001
ff98
0035
0003
fff4
005a
ffca
0040
000c
ffb9
ffb0
ffc5
0010
0005
ffef
ff7d
0025
ffd6
ff54
0012
fffe
001e
0023
ffb2
ffed
007f
0000
ffea
ff8d
0025
ffdf
ffa7
007f
ffb4
fffa
fff2
001e
ffb3
ffd2
0002
fffe
0043
0015
ffd5
fff2
ff68
000b
0002
003e
fff7
ffe4
ff7d
002e
ff6e
fffb
0014
ffc9
0001
ff7e
fff4
0004
fff7
0005
ffcc
0000
000c
fff9
0004
000d
ff9f
0007
fffc
fff4
0005
fff0
0031
0005
0026
0008
ffcb
fffa
ffe0
fff5
ff6b
ffd8
ffe2
fff1
ffce
fff9
001c
fffa
fffe
ffdd
0004
000c
000a
fff8
001e
fff5
0001
0007
ff6f
fff7
ffe4
fff3
ffc1
ffff
000e
fff1
fff5
0011
0010
ffd1
ff8a
0007
0018
ff6a
0003
0004
fff7
000d
002b
ff76
ff68
fffb
0004
0028
fffa
0005
fff8
0001
ffec
fff6
ffec
ffa1
ffe4
0000
ffff
0000
001d
0005
000a
0006
0011
0013
0014
0002
ffed
ff71
fffb
0009
0002
0022
fffd
ff6c
ffa8
ffe6
ffd4
fff1
fffa
ff64
fffb
fffe
0012
fff3
ff79
fff7
0011
ff82
0002
0005
fffc
fff3
0017
ff7b
000e
0005
fff9
0009
fff6
ff7b
fff6
ffcf
0004
fffb
fffb
0009
000a
0010
ffe2
000b
fff8
0040
000e
0011
fff8
002c
fffc
ff77
fff4
ffd8
0009
ff70
fffe
ffd4
0005
fffb
ffb4
fff2
0029
ff99
000e
0009
ff71
0010
ffeb
ff70
fff7
ffe8
fff6
ffa6
ffe2
ffe5
000e
ffc9
0006
0009
0026
0010
000a
0026
ffef
0004
001d
0006
ffff
000c
fffd
ffd6
fffa
002c
000a
fff3
fffe
0003
0013
ffff
000a
ff92
0001
0013
ff7c
ffed
ffdd
ffeb
ff69
000a
ff9d
0002
002e
000a
ff6b
0009
ff8e
0019
0002
0006
0002
000a
fffd
000f
ffe7
0021
0010
ffe9
ff83
001e
ffff
ffee
0016
ffcd
fffb
fffc
fffa
ff91
000b
0015
ff90
fff9
ffd7
ff6f
ffd8
000b
0008
ffcd
000d
0008
000f
ffff
0026
0002
0004
0008
001f
000a
fff9
ff6d
fff0
ff6f
fffc
001b
ffe4
000f
0029
ffe0
0006
0013
ffef
0016
0019
ff7a
fffa
0011
ffde
fff7
0001
fffd
000b
000d
ffc7
0017
ff7c
ff7c
0025
ffe3
0004
fffa
0001
fffb
fff1
ff66
0010
ff8d
0002
ff5e
fff1
ff7e
fff5
0007
0017
0004
ffb5
ff59
000d
0022
0006
fffd
ffc4
002d
ffdf
0001
0014
fff3
ffe8
ffc6
fff0
0029
ff8e
fffa
ffdd
0016
ff72
000d
0038
ffe4
ff6e
fff6
000a
fffb
0003
ffed
0004
0009
ff70
0016
ffc4
0011
ff80
002f
003c
ff80
0018
fff9
000f
001d
001b
0011
000c
fff4
0014
0016
0010
ffe8
0016
ffe3
ffea
fff9
0008
ffdf
0006
fff6
0002
ff6d
ff86
fff5
0002
ffdf
ff60
0008
0003
0016
fffc
0007
0004
ff7f
ff9e
0012
ff6a
0013
0009
ff6e
fff4
0005
ff7b
0004
ffb9
0006
001f
0001
0007
ffef
0004
fff4
0007
0005
fff5
fffd
ffef
ffd3
0008
002b
ffe9
0012
0009
ffec
fffd
fff7
0008
0006
fff2
ffdc
fffe
000a
ffe3
fffc
fff8
fff3
0001
0001
0008
fff6
ffd8
0010
ff80
fffb
000c
fff5
001c
000d
0000
ffda
0005
ffee
fffe
0007
001f
fff2
fffd
fff6
fffc
0018
fff9
fffa
fff3
ffeb
0002
ffeb
ff77
0017
0008
001a
0042
ffea
ffd7
000c
ffed
0003
0004
ffa7
fff7
0011
000d
0022
0018
ffe1
fff9
ffe0
0000
0012
ffea
0014
0008
0000
ffcc
0006
ffbf
fff8
fff2
ffe4
ffd4
000e
ffef
fff1
0022
fffe
0002
000b
ffe7
ffdf
0016
ff77
fff0
0000
ffe6
ffef
ff72
fffb
004f
0009
0008
fffc
0002
fff8
001a
fff4
fffc
fff2
fff4
ffff
fffc
ffec
0023
ffec
0004
ff68
0006
fff8
ffac
ff72
fffa
0023
ffdc
fffd
fff1
0005
0039
000f
001a
000e
ff7d
fff8
0013
ffff
0007
ffee
fff6
0004
fff1
fffc
0029
0007
ffed
fff7
0008
fff9
fff3
ff7e
fffa
fffe
0008
0008
001e
ff75
0013
0004
ffd9
001e
ffdd
000a
0016
0004
fff4
0009
000a
0002
ffeb
fff8
0003
0024
fff3
0008
fff6
fff6
0029
ffe4
0017
ffd3
ffec
ffe0
fff0
ffd7
ffe3
fffb
0024
fff1
002a
0000
fffc
0030
ffe6
fff0
ffef
fffe
0015
fff0
ffcd
000e
0021
000f
0019
0032
ffee
003c
ffe8
0012
ffe8
0000
ffe7
ffb4
ffed
003d
ffd7
ffe8
ffe7
fffa
ffdf
0016
0009
ffd6
0003
000e
000a
0022
ffe7
ffce
001c
0021
ffed
0009
ffc9
001d
ffe1
ffed
ffed
0031
fffb
001a
0002
fffc
fff0
ffb0
000d
fff2
ffdd
ffed
0013
000d
0029
fff0
fff0
ffcc
ffc0
ffe9
ffe1
003e
0028
0001
ffbd
0009
0012
ffee
ffcc
0021
000f
0022
ffe0
ffea
000c
0036
ffd3
ffe6
ffc9
0015
ffc9
ffee
000b
ffee
ffb5
ffa2
0014
ffee
ffea
ffc6
ffc6
ffee
0032
ffee
ffbc
000e
ffe8
ffed
fff5
0016
ff94
ffed
0025
fff6
ff9a
000f
ffe9
fff8
ffdb
fffd
0008
ffd9
ffee
ffe8
ffe5
0008
0019
ff6f
0020
0008
ffd0
0011
ffbc
ffab
fffc
ffb0
fff9
ffe7
ff9c
0017
0036
ffee
004c
0031
ffed
ffec
ffdf
ffdc
fff6
ffdf
0025
0010
ffff
ffeb
0018
0047
ffe9
ffea
0008
fff1
ffea
ffe2
0009
fff1
fff6
ffda
0013
ffea
ffee
fffd
001c
001b
0013
ff90
ffb0
0013
0018
ff9a
000a
002e
0009
ffd5
ffec
ffee
fffa
ffd5
ffdb
ffd5
000b
0023
003f
ffe7
001b
fff6
ffe8
001a
ffff
ffe2
fff3
0004
ffeb
0013
ffcf
fff3
ffea
ffe6
fff3
fffc
ffea
0027
ffa3
ffb3
0028
0014
ffd0
ffd4
0005
ffbb
fff4
fff4
000c
fffc
ff9f
fffd
fff2
002b
ffd7
ffed
fffe
fff5
ffee
ffee
002d
fff0
ffd6
0047
fffa
0029
0032
ffcd
fff3
0017
000b
fffd
ffe3
0030
0049
ffc7
fff0
ffea
ffc4
ffef
ff84
fff3
fff8
ffdb
0020
0009
fffd
000e
0000
ffe5
ffdd
ffea
0001
000a
ffe5
ffed
ffe2
002a
fff9
fffe
ffe9
ffce
ffeb
0001
ffe8
0047
fff5
001b
0018
ffcb
0022
ffed
0016
ffe8
0006
fff0
0000
fff0
ff9f
0027
ff9c
0008
ffdc
fff0
ffc8
ffed
002b
0005
002a
0007
ffe4
ffc1
ffda
ff63
ffde
ffdf
fff3
001b
fff0
0001
ffc3
0004
fff2
ffec
fffd
ffda
fff2
0014
0003
ffe5
fff6
ffd1
fff6
001a
ffef
003f
ffea
000d
ffec
fffc
ffb2
ffee
ffd0
fff2
0015
0025
0009
fff9
ffe4
ffc1
ffe0
ffe7
ffc5
002e
0005
ffd8
fff6
ffaa
0021
ffdb
ffad
ffce
ffee
ffea
fff3
ffc9
ffb5
ffe4
fff4
fff9
ffe3
ffe7
0014
0003
0017
ffe9
ffeb
ffd9
ffeb
0011
fffc
ffe7
0019
0004
ffec
002a
0032
fff8
ffde
0030
0014
ffef
ffee
000a
000e
ffcd
ffeb
fff0
0000
ffec
fff8
0013
ffe2
ffac
fffc
ffc2
001b
ffe4
0000
000c
ffd6
ffea
ffd9
0024
000b
0010
000c
ffca
001e
0031
ffbc
fff6
fffa
ffe5
ffef
0002
fff9
ffd6
ff7b
ffc3
0012
ffc3
0020
ffe4
fffc
ffd7
0001
0032
0004
001e
0049
0014
0028
0015
ffd8
000e
fffd
ff9a
ffef
ffeb
ffd1
ff9b
ffba
fff9
0023
ffe0
ffea
ffea
0023
fff3
ff9c
fff8
fffd
0018
ffbb
ffee
0003
ffc9
0008
fff9
ffd7
001d
0010
ffd5
ffde
0005
ffb2
ffda
ffde
0019
ffc6
ffdc
ffed
fffc
ffc6
0004
fffa
0009
ffee
ffe7
0028
ffe9
ffdc
0020
ffd3
002e
fff1
0018
ffb2
0010
0000
0021
001b
ff9f
ffe9
ffd2
ffbf
0009
fffd
fffe
0009
000f
ffb3
0017
ff8e
fff6
fff2
ff8e
fffc
ffef
0016
ffea
ffcc
001e
fff2
ffc8
0001
ffb0
ffd9
fff7
ffee
0013
000d
0012
fffb
ffd7
001e
000b
fffa
fffa
0017
001b
0000
ffd0
ffb3
0045
ffe7
ffed
ffe7
ffc7
0043
fff6
ffec
ffe9
000f
0016
ffdb
000b
ffef
fff7
001a
001f
ffcd
fff3
001b
ff8b
ffee
0007
ff9c
ffab
0000
0013
001c
fffa
0008
ffdf
fff3
ffa2
ffd2
0021
ffe7
0011
0005
ffb6
003a
ffb5
fff8
fff8
001b
0002
ffc3
000d
ff97
0013
0026
fff3
ffb1
fff0
0009
0003
fff0
000f
0000
0008
0003
000b
ffd8
ffde
001c
ff8c
ffda
0069
0006
000e
ff91
000b
fffe
fff3
ffc8
0001
0008
000a
ffe8
0013
ffed
0068
ffe4
000a
ffdd
ffdc
fff2
0020
ffcc
000b
0006
fff9
ffd5
000d
ffdb
ffc1
ffc9
001c
ffda
ffd4
ffed
000a
000a
0016
ffd5
ffd4
ffd7
000c
ffec
0017
ffdf
000e
001a
0008
0000
0002
0011
ffea
fffd
ffec
ffca
002b
ffd1
0002
fff2
0031
0026
0019
000f
0010
0000
ffcf
ffe0
fff7
ff99
ff8c
0015
ffd9
ffd7
ffd3
ffc8
ffc6
0043
ffd2
0019
ffef
0054
0019
ffe5
0012
0001
ffd5
001c
0007
0023
0009
000e
ffdb
ffb3
000b
ffee
0021
0002
ffcb
fff9
ffe1
fff2
001f
fff3
ffef
ffe6
ffef
0035
0014
000d
ff95
0001
0001
0006
ffee
002c
ffd4
0040
0064
0011
ffd9
ffe3
ffcc
fff0
ffe2
ff9d
fff3
0004
ffe2
fff2
ffdb
ffdc
fff3
0044
ffe0
ffe1
ffbe
002b
ffdf
003a
fff3
ffd6
ffb9
0005
0004
fffd
0018
000f
ffba
ffd7
ffd6
ffd2
0003
0007
ffed
ffe6
ffd5
000e
001b
ffe9
0000
000e
0022
ffea
ffe9
0003
ffba
0007
0016
ffd7
0043
fff8
fffa
ffe0
0011
ffe1
ffb6
ffd7
0008
ffd4
000b
ffd8
ffee
0011
fffa
0000
fff4
ffb2
0005
ffc4
ffa4
000d
0001
ffdf
0019
0006
0047
ffd6
ffeb
001d
0005
ffe5
ffc5
000d
ffff
ffe8
fff6
004f
ffd4
ffff
0020
fffa
0027
0006
000a
ffeb
0005
0028
000a
002d
fffc
fff5
ffcf
000a
ffd6
fff2
ffc8
0014
001a
ffe0
000e
0005
0015
002d
fff9
ffef
0002
ffee
ffd4
ffc2
ffff
ffe5
fff7
001a
001b
0040
0016
fffc
0010
ffde
ffd7
001a
004e
000e
0008
fff5
0024
fff7
ffda
000c
ffdc
000a
ffda
ffe3
ffdf
001f
fff1
ffdb
ffe0
ffb6
ffdb
ffee
003c
0030
ffee
007f
fff4
fff2
0016
003f
0030
ffbe
ffae
0011
fffb
ffdb
fffc
fff3
0015
ffd1
ffed
0000
ffda
ffe1
ffd8
fffd
0007
0009
0021
0019
fff0
ffd9
000a
ffe4
0028
ffd8
0018
ffa1
ffdf
0027
fff6
fffc
fff1
fffd
000b
fffc
000a
0013
ffea
fff5
0050
000f
ffca
0007
ffe3
000b
ffad
ffe8
fff3
0004
ffc4
ffde
000e
ffee
0017
ffdc
003d
ffef
ffdd
0008
0012
ffef
ffd2
ffde
fffb
ffd3
ffef
ffe6
ffd6
000b
0018
ffde
fff5
ffc3
0023
ffd8
0021
0000
fffa
002b
fffc
ffd5
fff8
fff0
001c
0013
002a
000d
ffdd
fffb
0007
fffc
fffb
0010
fff5
0015
ffec
fff1
ffb4
004f
0031
fffd
0033
ffe8
ffc8
0016
000c
000b
000e
ffda
ffe2
ffdd
fff0
0013
0002
0021
fff5
0008
0017
ffdd
0025
ffde
000d
ffa9
ffda
0002
0016
0021
0007
0004
fff5
0010
0068
fffc
ff85
ffd4
000d
ffe6
ffbc
ffa6
ffda
0058
0009
0017
0013
0016
ffb0
0025
0010
000d
ffde
0004
0056
0034
004b
ffe5
0021
ffcb
fffa
fff4
000d
fff9
000c
ffb5
ffec
fff9
0035
0004
0005
ffe2
ffe2
002c
ffe3
0015
ffe6
ffee
fff3
0019
ffd4
001b
0023
0026
ffd7
ffdf
002a
ffc7
0001
0026
0020
fff8
0014
ffe3
fffa
0004
0009
fff4
fffc
ffde
ffe3
ffc9
0021
0016
ffdc
0015
0026
ffbd
ffdb
fffc
0047
ffe1
0003
fff0
0003
ffea
000b
fff9
001f
ffd7
ffe7
0027
005b
0036
ffba
001c
0017
0019
0000
fffd
ffd0
0048
ffee
0011
001a
0003
ffd7
0029
fffd
0022
ffd5
0036
ffc5
ffea
ffe3
ffe3
ffc1
0053
0036
0021
fff0
004e
0014
fff4
fff1
ffff
0036
001c
ffec
ffde
ffdf
0000
ffef
ffff
fff5
0019
000d
ff24
ffec
fefd
0000
fff8
000f
ffe8
ff9f
0010
0000
ffef
fffe
0031
0001
0017
0000
fff6
0004
0000
fff3
fff8
0016
000b
0017
fffa
0007
0003
000a
ffcb
0001
000c
0010
ff14
0002
000e
0007
0027
ffeb
fffb
0000
fff6
ffeb
fff3
fff5
001b
fffe
fff7
ffdf
000c
0002
ff37
fffc
001c
0004
ffd6
fff1
fff7
0018
ffff
fff4
fffa
fff2
ff7e
ffea
0012
ff12
fffd
ffec
fffb
0004
0015
ff1d
ff23
0009
0007
fff2
0015
ffff
0005
ffef
0003
0012
0013
ff8a
fff4
fff5
fffc
0000
0002
fffb
fff5
ffef
0000
ffdb
0005
fffe
0000
ff17
fff8
fffd
fffc
0017
0003
ff20
ffbd
fff1
ffed
001f
fff4
ff11
0001
fff6
ffcd
0015
ff3a
fffc
0005
ff22
0006
fffa
ffef
0011
0005
ff39
0008
fffa
0008
fff5
0011
ff3a
fffd
000e
0010
0001
ffff
fffd
0013
fff8
000a
fff9
fff8
0006
ffee
fff6
0011
fff1
ffee
ff48
0005
0004
fff1
ff1d
fff4
0019
ffe1
0002
003d
fffc
ffed
ffae
fff8
0022
ff09
0006
000a
ff3f
ffd5
000c
0003
ff96
fffd
0011
0004
ffee
fffc
0009
0000
fffa
fff7
fff4
ffd2
0017
0006
fffa
000b
0003
ffff
fff0
0003
ffe6
fff2
0001
fffb
fff9
fff0
fff5
0008
ff9e
ffd7
fff9
ff18
0008
0010
ffff
fefa
fff5
ff88
002c
fff8
0001
ff2e
0007
ff53
fff5
fff3
fffc
0010
ffc3
002d
fff5
0005
0028
0016
fffd
ff1d
ffff
fff1
fff3
ffff
002a
0000
0005
fff5
ff65
ffff
ffff
ff53
0010
fffc
ff38
fffa
000e
0010
0015
ffdd
ffda
001b
0015
ffe5
000d
ffdd
000d
ffe4
fff9
0004
ff12
ffef
ff6d
000c
ffec
001e
ffec
ffeb
ffeb
fffd
0000
0014
ffff
0003
ff32
0022
fff5
0018
fffb
fffe
fffe
ffd1
ffff
ffe6
ffec
ff39
ffce
ffcb
0008
fffd
ffee
ffe7
fff5
0007
ff2d
ffe3
ff7f
0008
ff05
0020
ff3d
ffd1
0002
ffd7
001c
ffed
ff00
ffea
ffd1
0003
fff3
fffc
fff4
ffed
0009
ffe3
fffb
000c
0030
0006
000a
ff46
000a
ffe5
ffed
ff40
001c
0003
ffe8
ff17
000d
ffd4
fffe
fff4
000f
fffc
ffff
ff08
fffc
ffe1
ffeb
ff1d
0005
0004
ff15
ffd1
ffe9
fffa
fff9
fff4
fff4
000a
0011
ffdb
0000
0002
0002
fffb
0012
000e
000e
fffb
0015
fff5
0006
fff4
ff81
ff29
0001
fffd
001a
ff0f
ffee
ffea
0024
ffef
ffdc
fffc
ff4e
ff9e
fff0
ff0b
ffe8
000d
ff0d
ffe7
fffa
ff10
0011
002a
0009
fffd
fffa
0006
000e
ffe8
0005
ffec
fff6
000e
0004
fff5
ffee
fffa
ffee
fffc
fffb
fff8
0001
000b
000e
fffa
fff5
ffcf
fff8
ffcb
ffeb
ffca
ffff
0007
fff4
fff3
0002
fffe
fffa
0018
0006
ff4b
fffc
fff5
fffb
fffa
0000
fffd
ffff
fffb
ffea
0005
0001
000b
0026
0001
fffb
0005
fff5
ffff
0005
ffea
0002
ffe3
0022
ff70
ffee
0013
0011
0012
0008
fffc
0001
0016
fff9
ffff
ffc7
fffd
0006
ffe9
0001
ffe5
fffc
ffdc
0009
fffe
0008
000b
fff4
0000
fff1
0017
0009
ffde
fff4
0019
fff8
0005
0003
000f
001b
ffed
001e
ffef
0015
000a
002d
ffe7
ff21
0000
fff2
fff3
0005
ff16
ffe8
fffe
0013
fffb
000d
ffe6
000e
0007
fff6
001e
fffe
000e
ffdd
0017
0008
ffd6
0003
0006
ff1b
ffee
ffd1
fffb
ff02
fffc
ffdb
fffb
000d
0004
fff9
fff9
fff7
ffff
0006
ff2c
0000
ffe4
ffee
ffe2
0008
fff4
000f
fffe
fff8
fff7
ffef
0002
0002
fff2
0005
fff2
ff0a
fffa
000a
fffd
0012
ffeb
ff60
0015
0005
001e
0019
fff9
fff4
ffe9
0012
ffe7
ffff
fff9
fff1
fffd
ffd9
000b
ffd5
fff9
0017
0005
0021
0006
0002
0003
ffb6
ff52
0011
ff5b
0000
000d
ffa5
fffc
ff76
0014
0005
0016
0004
000c
0020
ffb5
fffa
0001
0012
ffca
0007
0006
fff0
ffff
000a
000f
fff2
0011
0003
ffcf
0009
fff1
ffe8
ff62
ffcb
ffd3
fff7
ff8b
fffa
0018
000c
000d
ffca
ffdc
0003
002b
fffc
001e
fff2
0009
000c
ff57
ffed
ffe9
000a
ffce
0016
000b
0025
fffe
0008
0005
ffb8
ff66
0006
fffe
ff50
0001
fff9
fff6
001b
0011
ff5a
ff58
002a
fff7
fff7
0017
0003
000c
fffb
ffe3
fffd
0000
ff83
ffec
0002
ffe9
fffc
0028
0009
0015
ffff
0018
000b
000d
0000
0019
ff57
fff7
000e
ffdd
0000
0009
ff4c
ffb1
ffe6
ffd1
fff9
fff6
ff6e
000d
ffec
ffef
0011
ff62
fffb
001c
ff62
0002
0004
ffff
fffc
ffee
ff5e
0011
0002
000a
000f
000d
ff53
000d
ffef
0012
fff4
0005
ffd1
000c
0012
ffe7
000c
fffb
0022
0017
0015
fff7
0031
fffa
ff5b
ffed
fff4
0002
ff6a
0005
ffe4
fffe
fff4
fffb
000e
000a
ff82
0015
0038
ff5e
0014
ffec
ff51
ffd2
ffc9
ffee
ff92
fff1
ffdd
0023
ffe8
0007
000b
0030
0022
0012
fff1
ffd5
0026
0031
0010
0001
0010
000d
ffda
000b
ffe5
0014
fff6
0009
0009
001e
fff4
fffa
ff7e
0004
0007
ff52
ffe3
002d
ffef
ff60
0003
ff70
002a
fffa
0008
ff55
0027
ff68
002b
ffff
0002
0012
fff5
001c
0000
fffd
002d
0030
ffdf
ff57
0015
0007
0019
fff9
0018
fff1
ffff
fffe
ff67
0012
0016
ff77
fff1
ffe3
ff56
ffb4
fffd
0008
fff0
0008
fff1
0001
0017
ffe9
000b
fff2
fff7
ffd3
001d
fff8
ff5d
fff0
ff50
000d
0010
0001
0003
0024
fff1
fff7
0020
fffa
001f
0031
ff5b
0025
0000
fff1
fff8
fff8
fffc
0004
0003
ffc1
0008
ff6d
ff99
003a
ffe0
0008
ffef
fff2
fffa
0004
ff5f
ffef
ff68
fffe
ff5d
0019
ff67
ffdb
0008
ffe1
0017
ffb9
ff56
0006
fffb
0009
0007
ffc6
002c
ffd6
0002
0000
ffea
ffc7
0006
fffb
0003
ff53
0007
ffd5
001d
ff52
002a
002d
fffd
ff47
0002
0007
fffb
000d
fffa
fffb
0006
ff5b
fff1
ffce
0014
ff50
0028
0006
ff60
0008
fff3
0007
001d
0007
0019
fffb
0009
002e
0018
001d
ffe5
001c
fff1
fff5
fffd
fffd
fff6
ffd0
fff4
000f
ff4c
ff55
fff1
fff9
ffea
ff63
fffa
001e
0025
0000
fffd
000a
ff5c
ff8a
000e
ff57
0014
fffe
ff59
ffd8
0000
ff5c
fff4
ffed
fffd
001a
fff9
000a
fffa
0006
0004
fff8
ffce
ffef
fff8
fffc
ffcc
0008
000d
fffd
fffd
0004
ffff
0018
0016
ffe2
0016
ffe1
ff92
ffe5
ffed
0003
0012
0009
ffcf
0008
000a
0015
fffc
fff9
0018
ff53
0004
0016
ffd9
0018
0006
fffd
ffe4
000c
ffeb
ffea
fff0
000b
000c
0014
fff9
fffa
0005
0004
0013
ffda
ffe5
fffa
0012
ff51
0014
0006
000a
0003
ffeb
ffee
001a
fffe
0004
0003
ff75
000d
000d
0008
0023
fff5
0000
ffed
ffe2
fff7
000e
0010
000d
0006
fffc
ffd9
0002
ffc6
fffe
ffe8
fff9
ffe6
fffd
fff7
ffef
fffa
0018
0003
0017
fff6
fffc
fff3
ff61
fff3
0012
ffe3
000d
ff5b
0001
0019
0015
fff5
fffd
fffb
ffeb
001f
0005
fffd
fffe
fffc
0008
000e
fff0
001a
0000
0016
ff64
fff7
ffd8
ff73
ff5a
fffc
ffe6
ffdf
0018
0014
fff2
000d
fffc
0015
fff7
ff61
000a
fff4
0007
000b
ffb4
fffc
fff3
fff5
fffd
002c
0009
fffc
fff7
0019
fff6
fff5
ff60
0001
0003
fff6
0006
fff6
ff53
fff5
000e
ffff
0012
fff5
000a
fff9
0016
fff4
fff8
0005
0002
ffee
fff3
0005
fffb
fff4
0026
fffe
0008
0009
ffe8
fffe
ffc1
ffc3
ffd9
ffc5
0019
ffdf
ffc0
000c
ffac
fff0
0017
ffe4
ffeb
000d
ffd1
ffe4
0024
001d
0010
ffe6
fffc
fff0
0002
fffd
fff7
fffd
fff1
fff3
fff9
ffe4
0018
0000
ff8f
ffbe
ffe8
0025
0012
ffc3
0002
0017
0021
fff4
fff5
ffe0
ffe6
fffd
fffb
fff9
ffce
0005
0032
ffbf
004d
002b
000b
ffe2
ffee
ffe1
000b
0056
ffcd
fff7
ffbf
ffb0
ffcb
ffd5
ffbd
0010
0023
fff6
0015
001b
ffc2
ffc2
ffbf
fff7
ffd6
002b
ffe5
ffff
fff9
000e
0032
0017
ffc4
ffe8
0037
000c
0010
ffed
0010
0006
0009
ffd9
fff5
fffe
ffed
ffc2
ffbd
0038
000f
ffc9
0002
ffe1
ffb7
ffe2
fff9
fffe
005a
0026
ffb6
ffe9
0003
ffae
fffc
ffd3
000a
001f
ffb5
ffdd
ffff
ffb1
ffcd
ffef
ffcf
001a
0007
0007
ffdd
0037
ffc0
0022
ffb8
0007
ffdd
ffff
ffd9
ffe8
fff5
fff8
fffe
ffe7
ffd2
ffdd
fff6
000f
0007
ffe3
ffcb
000f
ffbd
0012
ffbc
0022
0019
002c
fff8
fff1
000b
ffe4
ffd3
0041
fffb
ffc0
000c
ffdc
ffc7
ff9e
0004
0028
ffd6
ffd7
ffda
000c
ffcb
0027
0030
fff8
0009
001e
ffc8
ffdf
0019
0005
0019
0033
fff2
0011
fffa
ffe9
ffc6
0026
0041
fffa
0023
002c
fff5
fff1
ff91
001f
0012
ffca
ffe5
0012
000a
ffbb
ffed
ffc4
003a
fff0
0028
ffc7
ffc1
ffd1
ffea
0005
fffa
0009
ffaa
0063
0023
0027
fff1
ffd7
ffff
ffc7
ffdf
0018
ffcd
ffc5
fffb
001b
000c
0039
ffcc
000f
001d
ffc6
0012
ffd0
ffc0
fff4
fff6
000f
fff4
ffe2
ffef
ffc9
ffe4
ffe3
0008
ffbb
fff4
fffe
ffca
0025
ffbb
0009
ffc3
0015
0007
0062
ffeb
ffd5
004d
fff7
ffee
0026
fff6
0011
ffbf
0034
fffb
0029
ffff
ffec
000a
ffef
0010
ffca
ffde
ffc1
ffb7
ffc9
fff1
001c
fff6
ffe3
0004
0003
ffcb
ffc8
ffd5
ffdd
ffb9
0045
ffc6
ffc3
fffb
ffb6
001a
ffd4
ffb8
001f
ffc9
0010
0004
ffc8
0009
fff8
0033
ffd7
ffe4
ffe2
ffbd
fffc
ffd2
ffc8
0027
ff86
000e
ffc0
fff7
0012
ffc0
ffcc
000f
ffe9
0017
fffe
0001
002a
fff2
ffbb
0007
ffdc
ffdb
ffb5
ffd8
fff6
ffc3
ffd8
000e
ffed
000e
fff4
ffcb
fff5
ffd1
ffe5
0021
fffe
fff8
000d
0012
0029
0015
002a
fff4
ff94
fffd
0014
ffb6
ffc2
fffb
000f
0009
ffb6
ffd2
ffee
ffda
ffdd
001e
0004
ffb1
ffcb
0041
ffbd
ffef
ffe7
ffae
001c
ffe4
ffc0
ffe0
002e
fff4
ffe9
001f
000f
001d
fff1
0031
0051
ffe2
fff2
000d
fffb
ffed
002d
0015
000d
000d
0014
fff7
0007
0008
fffe
0024
ffe5
ffa8
ffd7
ffdf
fffc
fffb
0018
ff76
ffed
001d
ffd2
fff0
000a
000e
ffc9
000a
0013
000d
000a
0009
ffec
fffc
003e
001b
000d
fffe
002c
002b
0012
0022
ffe0
ffdd
fff7
0003
ffd6
ffcf
fffb
ff7e
ffc4
0012
ffd9
ffd3
ffff
005d
ffd8
ffe5
ffff
fff5
002e
ff95
ffe3
0015
fff6
ffff
ffbe
ffd5
001e
fff5
0042
0016
0049
0018
002c
0027
ffe8
ffe0
ff52
ffe0
0044
fff6
ffe1
0002
003a
fffc
ffc2
ffeb
0015
0023
0014
fff1
ffdd
ffbd
000e
fff4
fff7
0058
ffc1
fff0
ffdd
0028
fffb
ffeb
fff8
000b
000a
fff7
0022
0021
0047
000e
0034
0003
ffce
ffe6
0024
ffbc
ffef
ffc3
ffe1
ffbc
0017
ffc2
fff5
fffb
002a
ffcf
ffe2
001f
ffec
ffba
ffca
001b
ffd3
ffe7
0008
ffb8
002a
ffc8
000c
001b
0014
0054
ffdb
004a
ffc5
000d
fffd
ffba
ffe6
002c
fff4
003e
0005
ffc2
fff7
0005
001e
0003
ffcf
fff2
fff6
ffeb
ffd3
0005
fffc
ffe2
0006
0035
000f
ffc7
001d
0026
0004
0014
0011
0050
002f
007f
ff6b
fff8
ff2d
fff9
0041
002b
0027
fff3
ffeb
fff1
fff6
fff7
001d
002b
0061
0013
ffff
0027
ffef
ffe1
0007
fff3
0002
fff9
0014
0009
0040
ffd2
0004
fff1
ffef
007f
ff52
fff6
fff2
0000
005b
fff0
0007
0001
0003
0060
000a
fff1
0003
fffe
003b
fff9
0013
fffa
ff73
0008
fff6
000d
fff4
0003
000a
ffe2
001e
002a
fff2
005e
ffe8
0042
001d
ff48
000a
ffef
fff4
fffd
0003
ff5f
ff44
002a
0031
0000
0020
fff6
0001
0007
fff4
ffed
ffef
ffd4
fffc
ffee
0005
000e
002a
fffe
fffd
000e
001d
0003
0021
001c
000d
ff51
ffed
0007
007e
0018
0015
ff4f
fff3
001a
fffe
0009
000f
ff5a
ffee
ffe9
0012
000c
ff6d
0008
000d
ff85
0009
0019
000e
0022
0006
ff84
0013
0008
fffc
0001
000b
ff93
ffdb
005c
0017
fffa
0002
0003
002e
000d
ffd7
0023
fffe
0043
ffea
fffd
0001
0009
ffed
ff8a
0006
0012
0000
ff75
0015
fffb
0000
0014
fff5
fff5
fff1
ffce
ffe9
0029
ff6d
0012
ffe1
ff75
0047
fff2
ffe3
ffce
0000
fff2
ffea
0034
0004
0007
fffa
fff5
ffeb
003f
0017
ffe2
fff6
000f
0008
0008
fffb
fff4
002e
0016
ffd3
0009
0018
ffe8
ffdc
ffe0
000c
fff2
ffb0
fff1
ff6a
fffa
ffde
0041
ff2b
ffe9
ffd3
0037
0011
001b
ff62
0034
ff9d
fffd
0002
0005
0020
0031
fff5
0006
0005
0028
000e
0012
ff89
fff4
ffe3
ffe7
002c
000d
0014
0004
000b
ffe0
0011
0018
ffb2
ffef
fff0
ff81
ffd3
0015
0001
ffd9
0005
fff7
003d
0028
ffe2
ffff
0002
0016
fff8
ffe4
001f
ff6d
ffde
ffb4
ffd9
ffe2
0001
0015
0007
ffbd
fff6
0011
fff3
0008
0002
ff89
fffb
fff6
fffb
0014
001f
000e
0008
000a
0007
001e
ff9f
ffd4
ffe2
fff8
000e
ffef
0000
000c
0015
ff8a
003b
ffc1
fffb
ff2e
0015
ff86
0021
0001
004f
0002
001f
ff61
0013
001d
0002
ffe2
0005
0005
002b
ffff
0049
ffc3
0011
003d
ffee
0035
ffbe
fff6
003e
ffe8
ff65
0021
fffa
0020
ff48
ffef
0003
ffff
fff0
000d
0014
ffff
ff50
0005
ffde
ffe1
ff72
000f
0019
ff58
0042
ffe5
000f
fff5
0001
fff6
0002
002c
ffdd
0027
0022
fff4
0003
fffc
000f
fffc
fffc
0000
007b
0005
0000
ffaf
ff95
0016
fff5
ffe5
ff35
0012
fff1
0001
0028
0004
ffde
ffab
fff0
fffe
ff4f
fff6
0025
ff5f
fffa
fffd
ff62
0019
000b
fff7
0012
001e
0008
ffe7
fff3
0009
ffdb
0022
0015
0011
0000
ffc2
fffd
ffc6
fffc
001f
0010
000c
ffef
0019
000f
ffed
001f
0052
ffcd
ffe3
ffbb
ffef
0001
007f
ffd3
0000
001e
000b
fff2
0020
ffa2
0004
fffa
fff1
fff5
0017
000d
fff7
ffe3
ffd3
003f
0008
fff9
0022
0000
0003
ffe4
0009
fff7
ffcc
001f
ffeb
fffc
005d
ffb9
0008
000d
0042
0001
0002
fff5
002b
0008
0037
0008
0011
ffec
ffff
ffe1
ffe2
003d
0003
fff4
ffdc
fff2
0014
ffe4
000f
0004
ffdb
fff2
000d
0031
0000
000d
ffff
ffd9
000f
0010
fffd
0030
000c
000c
ffe9
fffd
fffd
fffe
ff79
0013
ffe7
fff2
fffc
ff65
ffd7
0057
fff8
0002
0002
ffff
ffda
002d
fffc
ffff
fff8
0003
ffef
001b
fff9
000e
0008
ffd2
ff60
fff1
001e
ffc8
ff48
fff0
fff4
ffff
fffa
ffd7
0011
0019
ffe9
ffea
0042
ff88
ffe7
0012
0011
0001
004b
ffe4
0010
fffe
0005
fff3
ffe5
000a
000c
002b
0004
fffa
ff6e
0011
000f
0012
0043
000a
ff76
001d
fffd
000a
0038
000d
0006
ffe5
0012
fff0
0002
0002
ffe7
0019
ffe1
fff2
004e
ffe9
fffa
000f
0017
0009
0020
0030
007f
ff65
fff2
ff31
ffe9
000c
0037
fff4
0010
0009
fff3
fffb
ffe6
0058
003e
0063
0010
fff1
0025
fffd
ffd5
fff6
fff7
0000
0001
0009
fff8
001f
ffd0
0011
fffb
ffff
007f
ff46
ffdc
ffd1
fff9
006d
ffef
fff3
0009
0031
002f
ffd4
ffd8
0037
fffd
002e
0001
000a
fffe
ff7b
ffe7
fff1
fff3
000d
0006
fff6
0001
0009
001c
ffe2
005f
000b
002d
fffe
ff1b
0005
ffd7
ffec
000f
0012
ff4d
ff0e
0037
001d
fff2
001a
ffef
fffa
fff9
ffd7
ffe9
0012
fff6
ffec
ffe6
ffea
0003
002b
fffa
fff0
0003
000e
ffc8
0020
0019
001c
ff2a
ffdb
0009
0058
000d
0011
ff2c
0011
0033
0008
0012
0005
ff11
fffa
ffe9
0009
003d
ff8f
fff5
001b
ff87
0011
0010
0013
0003
ffee
ff8c
0010
0002
0004
ffee
0002
ff85
ffea
0045
0007
ffd9
fffa
0006
001a
fff5
ffe2
0007
fff0
003f
ffdd
0008
fff9
fffb
ffeb
ffa9
fffe
0010
ffe9
ff67
000c
0019
ffdd
002e
0061
0005
ffd6
fff1
ffee
004a
ff45
0014
fff6
ff7a
ffff
002e
fff9
ffe8
0002
0016
0009
002f
fffa
0002
fff3
ffea
ffed
0029
003a
ffeb
0007
0004
0001
0006
0007
000e
001e
0004
ffc5
fff0
000c
ffe0
ffe2
ffb6
fff7
001d
ff9d
ffe0
ff6b
ffe8
0005
0022
fef0
ffe7
ffff
0046
0001
0000
ff4c
0025
ffc8
fff2
fff5
fff3
002c
0039
fff3
0001
000b
0065
0028
0013
ff9d
ffe9
ffe5
ffda
002a
002d
0001
0006
0009
ffed
0008
0005
ffb3
ffea
fff8
ff86
fff6
0018
0013
ffef
ffed
ffe5
0026
0043
000a
000f
ffe2
0004
ffbe
ffe2
001c
ff4d
ffe5
ffd4
ffd8
ffb1
ffff
fff9
0008
ffa7
ffca
0010
ffea
ffef
fff6
ff81
0009
ffd8
fff6
001e
0001
000b
ffd3
0015
000f
0005
ff96
0007
ffd0
ffef
0005
ffde
ffde
0003
0019
ff87
001c
ffe6
fff1
ff0b
001b
ffa0
ffe6
fff9
0032
0022
0052
ff57
fff5
fff1
0016
ffd9
ffe7
fffb
0024
ffe9
002b
ffa4
0035
007f
0006
000c
ffe4
fffe
0028
ffec
ff58
0038
fff9
002e
ff43
0000
ffde
fffa
0003
000b
0009
fffa
ff11
fffa
fffb
ffcc
ff57
000f
0015
ff71
000a
fff0
000e
fff1
0005
fff2
fff9
001c
fffb
001b
001c
ffef
fff9
0040
0036
ffe0
fff8
002d
0052
000d
fff4
ffd0
ffa4
0010
ffe4
ffeb
ff15
ffda
0002
0042
0002
ffde
ffe5
ffb0
000a
ffe5
ff0f
ffdd
0022
ff37
ffd0
fff2
ff5c
000f
004c
0025
0013
0004
fffd
ffdb
ffdb
000a
ffbb
fffb
000d
fffb
fffc
ffee
fffb
ffb4
fffb
fff9
0014
0004
ffe8
0012
ffe1
fffb
000e
004a
ffe3
001d
ffdd
ffe2
0008
0070
ffd5
0002
0029
0010
002d
001c
ffab
fffe
fff7
000c
fff8
0007
fff2
0004
ffde
ffd2
001f
fffd
ffdb
0040
000a
0004
fff4
fffb
fff6
ffd9
000a
ffda
ffed
007f
ffdf
fff0
002b
0034
fffa
ffe8
ffef
002c
000b
0011
fffd
001f
fff0
0015
ffd3
ffeb
0037
fff7
ffdb
ffda
ffdf
000b
ffef
ffff
0008
ffca
000d
0011
003a
0003
fffd
ffed
0003
ffee
fffe
0041
0004
0010
fffe
0004
0004
000c
ffcf
ff5b
002e
ffe1
ffeb
fff7
ff61
0013
0043
0016
ffe6
ffef
ffe4
ffdb
0032
0012
fff9
fff1
ffea
ffd2
002b
fff5
0013
0004
ffd9
ff5a
ffd9
ffec
ffc6
ff18
fff1
ffe0
0022
0008
ffd5
0018
fff1
ffe3
ffe6
002d
ff95
fff6
0001
0007
ffdb
0044
ffbe
fff9
ffed
0001
ffe0
ffe1
000e
fff6
000d
0000
0005
ff2e
0002
000d
0008
003a
0005
ff88
000c
0002
0029
002e
0012
0017
ffb0
0018
ffcf
ffea
ffec
0000
0027
ffba
ffe8
0020
000a
000b
0004
0011
ffe8
ffb2
ffda
ffc8
ffa0
ffff
ffba
fffd
0002
ffdb
fffc
ffab
fffd
ffe8
ffcf
fffc
0038
ffd7
ffcf
ffdd
ffda
ffe0
ffd3
0008
fff3
001a
fff2
fffc
ffde
0000
ffcd
0000
ffc6
ffea
fff3
ffab
ffaa
0039
0060
000e
ffde
ffed
fffd
ffef
ffcf
0008
003f
ffe9
ffa9
fff0
ffcf
0013
fff2
ffdd
ffa8
002c
0049
0009
ffc8
ffd1
ffef
fff4
001e
ffd1
000f
ffd2
ffb2
fff0
0016
ff9f
ffe7
fffa
ffe3
ffd1
ffeb
ff9b
ff9f
ffe9
0017
0007
fffb
ffee
fff5
fff0
0061
0021
fff9
ffb4
0016
fffe
0008
fff6
ffc2
ffe4
ffeb
ffed
ffed
ffed
ffe3
ffdd
0004
ff9f
002e
ffd9
ffc8
000a
ffe0
ff99
ffc1
ffef
fff8
fff4
ffeb
ffa2
fff9
ffe8
fffd
ffe8
ffb6
fff8
ffe6
ff9d
ffe9
ffdb
0000
0021
000a
ffa8
ffe8
ffdf
ffe5
ffe4
fffa
ff9a
fff7
fff2
ffec
0041
fff2
ffec
0013
fffe
0024
fffc
0000
ffd5
ffe9
ffd3
001d
0015
fffc
ffab
fff9
fff1
fff9
ffb5
fff8
ffee
0031
ffd0
ffb1
0008
002c
ffc1
ffda
ffde
ffad
ffd1
0000
ffad
ffe1
ffce
ffff
ffc4
000e
ffdb
ffdd
ffbe
ffeb
ffde
ffe5
0001
ffd3
0007
ffc5
0006
fff7
ffee
ffdd
ffe8
ffed
ffe3
ffe5
fff1
0022
002c
ffe4
000a
ffe6
0001
ffe7
ffad
ffee
0023
ffa8
0026
0011
ffe9
ffb3
ffea
ffc2
ffda
0004
001c
ffa3
ffed
ffab
0023
fff7
fff2
ffec
ffc3
0011
ffe4
ffee
ffa6
ffc0
fff2
ffa8
ffef
ffe2
001b
fff6
002b
fff8
fff7
0000
ffa0
ffd9
ffd4
ffc1
0014
002d
ff97
0004
ffda
ffe0
002c
ffd9
fffe
001f
ffe2
ffcd
ffd1
0009
ffec
000f
001d
ffdb
ffa5
0026
ffa4
0018
0040
ffff
fff4
ffe1
0016
0030
ffca
0011
0000
ffd1
ff99
fffa
ffeb
002e
ffdc
0010
fff1
000c
ffff
fff8
ffcf
ffb2
ffaf
0022
0029
fff1
0005
000f
ffe8
ffd5
ffab
fff4
ffb6
fffa
ffa5
fffb
ffaf
0022
ffdf
ffd7
ffe9
ffca
ff9f
fff6
001a
ffdf
000c
003b
ffce
ffd2
0023
0007
004b
fffb
ffcf
ffe6
ffd2
ffad
fff8
fffe
ffd8
ff8f
ffcb
ffb1
ffd9
ffb7
fff6
fff9
ffea
ffcf
000c
ffe9
fff2
ff9e
ffe9
ffce
002a
ffa8
ffd8
fff7
ffab
ffdf
0004
ffe3
fff4
fff3
001b
fff0
0025
ffba
ffdd
ffdb
0014
ffd1
ffd5
ffe9
0030
ffe3
ffbf
ffd1
ffec
ffe0
ffa4
ffab
fff8
fffe
0035
ffa1
0011
0011
ffd4
fff4
0030
fff5
ffb6
ffbd
fff2
ffaa
fff2
ffdc
ffab
0010
ffea
ffac
ffe3
ffc0
ffdc
ffd8
fffd
0001
0030
0011
ffdb
0038
002d
000a
fffb
ffea
ffe8
ffdb
0029
0020
001d
ffdc
0012
fffd
0004
001e
ffd8
fff7
ffbb
fff9
ffcc
000b
0005
ffef
ffc5
fff6
fff3
ffdb
ffd4
ffea
ffda
ffa3
ffef
ffd4
fffc
ffed
ffff
fff1
002d
0013
0028
0016
0019
003f
fff1
ffda
fff0
ffff
ffdc
fff5
ffef
ffdb
001d
000a
ffd8
ffad
ffe2
ffcc
ffef
ffff
003b
002b
ffd2
0014
ffee
ffeb
ffbc
0017
ffd5
000b
000b
001a
000c
fffe
002d
0025
fff4
fff2
ffe4
ffe3
0025
000b
ffec
ffd5
ffd5
0032
fff6
0002
0013
0039
ffc9
ffe6
0023
ffe6
ffda
fffd
0021
fff0
ffad
fff5
fff1
fff9
0019
ffb1
ffcb
ff96
ffc7
0001
000e
0015
0017
ffcd
fff3
0035
ffe7
0022
ffe7
ffe7
000c
ffed
ffe7
0016
ffa1
0007
0034
ffd3
ffa9
fff7
0014
ffe4
ffd2
fffb
fff9
ffe6
fff7
ffed
ffed
ffa6
fff0
000d
fff0
000c
fff5
0003
0015
fff1
fff0
ffea
fffe
ffe7
002b
0005
fff0
ffe0
ffad
ffee
ffec
ffec
ffe5
000e
ffa6
fff1
ffe0
0025
ffcf
fffb
fffa
fff5
ffcd
0013
ffed
fff6
fff2
ffd3
0003
0020
ffd1
ffec
ffdf
fff6
0006
fffe
fff1
ffff
002b
fef3
ffef
fec7
0009
0000
001c
fffa
ff66
ffff
fffa
fff8
000b
0021
fff6
0039
fff6
0000
ffff
0005
fffd
ffd0
000c
0019
fffd
fff3
000f
0000
0008
ffe7
fff8
000f
ffe4
fecd
0007
000a
000f
0015
ffed
fff4
0009
ffe5
fff7
0000
fff5
0018
fffa
000d
0019
0006
0000
ff13
fff3
0015
000a
ffea
fff0
fff1
0011
fff5
ffe6
0006
0020
ff4c
fff5
0007
fede
fff4
fff8
fff1
fffc
0010
fee7
fefd
0001
0014
0006
0011
ffe6
0005
fff2
0024
0018
0003
ff93
ffec
fff6
ffe3
0006
fff3
fff6
ffef
0006
fff6
ffdb
fffa
fffd
fffa
fee0
0007
ffef
ffeb
fffe
ffff
fef9
ffd4
fff6
0011
0002
0013
feb5
0003
fff4
ffdb
0018
ff15
0005
0004
fecd
0003
fff8
0002
fff7
0007
ff0c
fff0
fff1
0003
fff3
0007
ff26
fff5
0006
fffb
0011
fff9
ffe7
000c
fff6
001d
fffb
ffef
ffe4
fff7
fff3
0015
0001
fff3
ff31
001d
ffff
ffef
fee1
ffe6
fffd
fff9
0006
0011
0008
0006
ffc3
0007
0005
fed5
fff7
0017
ff1a
ffc5
0004
000c
ff92
0007
0002
0002
ffe8
fff7
fff9
0003
0012
fff3
fff1
fff1
0009
ffff
fff3
0009
ffeb
0006
fff1
fff8
fff1
fffe
0008
0003
fffa
fff7
fff0
ffff
ff7b
ffd3
0009
fef8
0016
001e
fffd
feb6
fff8
ff92
fff6
000b
ffee
ff1a
ffe6
ff47
fffd
ffef
fff2
0013
ffd4
0009
fff3
fff2
0014
0002
ffeb
fee6
fff5
ffed
000c
fffb
fffa
0003
0014
ffec
ff40
fff2
fff2
ff45
ffed
000b
ff11
ffeb
000f
fff9
000d
ffe3
ffe6
0010
fffd
fffd
fff5
0002
0003
ffe0
0001
fffd
fedf
000d
ff4e
0011
fffb
0014
fff6
fff4
ffeb
fffe
fff6
fff3
fffe
fffd
ff08
0002
fff0
fff5
fffa
000d
000b
ffe9
fff5
0010
fff7
ff07
ffd0
0002
0002
0001
ffee
ffec
0004
fff3
ff01
ffe4
ff8e
fff4
fec6
0012
ff25
ffe1
fff5
ffe7
0003
0018
feb9
ffe9
fffd
0008
fff8
000d
ffee
ffff
000f
ffef
002a
003e
001a
0011
fffa
ff22
000a
000d
fff0
ff13
0019
fffd
0015
feea
000e
ffe4
fff1
fffa
0015
fff7
0005
fedd
ffff
fff9
0003
fef4
fffd
fff4
fed5
ffe4
fffd
fff5
0003
fff7
0000
ffff
0012
ffdd
fff1
0001
000b
fff0
0006
0003
0004
fffe
000e
ffec
fff3
ffed
ff47
ff03
0007
0002
0016
fed5
fff7
fff0
0017
fff2
fff0
fffe
ff3e
ffc2
ffed
feca
fff7
0009
fee7
fff8
fffc
fef7
fffe
0021
0006
000c
000d
000a
fffb
0002
ffff
0002
000b
001e
fffc
ffe6
fffe
0004
000f
fff3
000d
fff9
fffc
fffe
000c
ffee
fff5
ffe4
fff6
000c
fff3
ffdb
0005
000a
ffc7
ffe6
0010
000a
fffb
ffe5
fff5
ff48
fff8
fff4
ffff
0009
fff7
fff1
000f
000f
0004
0004
0001
0003
0002
fff7
000f
fff7
ffe6
fffa
ffff
ffff
0010
0008
0012
ff55
fff3
fffe
fff7
fff8
fffd
0003
0001
000f
ffef
0008
ff9c
001c
fff7
fffa
ffff
0003
0021
fffd
0021
fff1
000b
fff9
fffa
0008
0011
fff1
0004
0001
fff0
0010
0004
0017
0001
0005
fffa
ffeb
000c
fff2
fffc
0012
0002
ffdb
fedc
0017
fff3
fff6
fff4
fee6
fffa
fff4
0002
fffc
0008
fffa
0013
fff5
fff3
0024
fff9
000a
ffde
0004
0005
fffa
fff4
0014
fed1
fff5
ffe9
fff7
fecc
0002
0010
fff1
ffe9
fff3
0004
ffe8
fff6
fff3
0001
fef0
ffff
ffef
fffe
0002
0023
ffed
0001
fff9
fff6
0000
fff4
0006
0003
fff3
0005
ffe3
fec7
ffff
0007
000b
fff2
0003
ff6a
0023
fffa
fffd
000a
fffd
fffe
ffe4
0000
fff9
fff8
fff6
0004
fffd
fffb
002c
ffdd
fff0
0012
fffd
001c
0007
ffe2
ffea
ffe2
ffb9
000d
ffcf
0000
ffde
ffb4
fff6
ffaf
ffb1
fff8
0000
ffec
ffcf
fff2
ffca
ffff
0010
0011
ffc9
0003
fff7
ffc7
0000
fff9
0039
ffe9
0002
ffd3
ffea
ffbb
ffff
ff97
ffc0
fff7
fff3
0001
ffba
0012
0050
0019
ffe7
ffef
fff6
ffe0
001d
000b
fff4
0016
fffa
0005
ffc9
ffff
0005
fffe
ffda
0002
0008
ffd3
0014
ffeb
0000
ffad
ffc5
0016
ffa1
ffb8
ffff
0002
0013
001e
ffe4
ffb5
ffba
fff8
001e
fff8
ffdd
ffe4
ffe4
0010
0013
002d
ffe9
ffd7
fffc
000c
ffa0
0011
fff6
0004
0009
0000
0029
0020
000d
0002
ffd9
ffb4
0017
0007
ffc3
000e
0004
ffbf
ffdb
fffa
fff4
ffdb
000c
ffbb
0015
ffcb
0035
0006
ffda
ffe0
0029
ffc3
ffeb
000c
fffa
ff98
fff4
ffbb
ffc1
000f
0006
fffa
001a
ffb6
0002
ffb8
0008
fff0
0006
ffca
ffb0
000a
fff5
0015
0002
0005
fff6
0012
ffe9
fffe
ffbf
ffc2
fff6
fff1
0003
ffd0
ffec
ffd5
0016
0006
ff8d
0009
ffea
ffd6
0025
ffcb
ffc9
ffed
0000
ffc2
ffb7
fff3
003c
ffd6
ffd2
fff2
0005
ffbd
000f
001d
0002
0002
002c
fff9
ffe4
ffb2
ffe3
0043
0004
ffed
0016
ffe7
0011
000e
0021
0017
fffc
001c
000d
ffff
ffef
ffaa
ffd2
000e
ffc3
0000
0009
ffe8
ffc5
ffee
ffda
ffc6
0016
0012
ffbb
ffd9
ffc3
ffc9
0002
0009
fff7
0009
ffb9
0017
fffd
ffeb
ffef
ffef
ffc3
0008
0037
ffc6
ffef
ffaf
000f
fff2
000d
ffbc
0005
0018
ffd9
ffc7
ffd7
ffc3
ffed
0000
0011
ffb8
ffe0
001b
ffaf
ffe0
0002
0009
0013
fff5
ffb4
ffbe
001b
ffc0
0026
ffb2
0005
ffe9
ffdc
0011
ffed
0027
ffde
000f
fff1
fffd
0031
ffc1
ffc7
ffee
ffd6
000d
fffe
0011
0016
0007
ffe6
fffa
ffd1
ffa2
ffe9
000c
ffff
ffde
fffd
0009
ffaa
ffcd
ffdd
ffc5
ffe0
ffc4
fff2
ffce
0024
0018
ffe7
ffe9
ffc5
ffc5
0005
0014
001d
0002
ffeb
000a
ffec
ffee
003d
fff7
fff3
ffd0
ffff
fffc
ffcd
ffd3
ffba
0047
ffb9
0018
003f
ffe1
ffc8
0000
0006
fffd
0013
fff6
0022
fffd
ffbb
ffef
ffcf
ffd1
ffb4
001a
0022
ffc5
0000
0013
ffc4
fff9
0018
ffc8
ffdd
ffd3
005d
0001
001a
0018
000e
fff8
001d
0007
000f
ffc1
ffd8
fffb
fffa
ffb0
ffc4
ffdb
ffeb
ffe3
ffbe
0024
fff2
ffe6
ffe6
0008
000b
ffb1
ffc4
001d
ffc0
fff3
ffff
ffab
ffc0
fffc
ffc8
ffd6
ffd7
0015
0005
fff7
0000
ffc1
0023
ffee
000d
000b
fff4
000f
fff7
0003
002f
0005
ffda
001c
0013
ffe3
0002
ffd5
ffe6
0044
ffea
ffb2
0005
fff6
0000
000f
ffff
ffa2
fff3
0003
fffa
ffec
ffd0
ffe8
ffc7
fff4
000d
0015
004a
ffff
ffd8
0016
002a
002c
ffd7
0029
0013
ffd2
000e
0012
ffa9
000f
0009
ffdb
ffdd
000d
000a
ffa4
ffbd
0024
ffff
ffd0
001e
000e
ffd5
0002
ffdf
fffb
000a
ff9e
ffed
0029
001a
ffd4
0019
fff6
0019
fff6
0017
0016
0022
001c
0012
002b
ffde
000e
ff8a
fff6
001d
ffea
0007
0014
0000
ffef
001e
ffb3
ffff
0014
ffd8
fff8
0009
ffbc
0021
ffe0
0016
fff9
ffc8
0006
0008
0015
0027
ffeb
fffd
ffe8
0000
0000
001a
fff4
0003
0001
ffeb
ffe1
0008
0008
0010
ffc0
fffb
0036
ff76
ffbb
0014
0008
fff5
fffe
0029
000f
fff7
005d
0016
ffeb
ffc4
000f
0002
002d
0040
ffcd
003a
fff6
0013
fff4
0009
fff1
001c
002a
fffc
0003
ffff
ffbb
000d
0010
0003
fff1
001c
ffa5
fffe
0002
ffd9
0008
001a
0004
001e
fffa
002a
001c
0005
001a
ffff
000b
0012
ffee
fffa
0009
0002
0005
000a
ffe1
0048
0041
ff6d
ffc8
ff67
ffe4
fff6
0005
ffcb
ffbd
fff9
000b
ffea
ffe4
0017
0012
0011
0009
fff0
001e
0007
ffe7
fff2
ffd1
fffd
001b
002e
ffd9
0004
ffcc
ffd9
fffa
001d
000f
ff66
ffe5
ffd9
0002
000b
001f
ffff
0004
002d
ffe8
ffea
ffd7
0033
0006
000b
ffdb
000a
fffe
ff81
ffe9
fffa
0009
ffee
fffa
fff9
0006
0011
fff2
ffd2
ffe2
ffad
ffd9
ffce
ff53
0005
ffd8
fffa
0012
0027
ff67
ff56
0013
fff5
ffd2
0005
fff5
fff7
0017
fff9
002e
fffa
ffb3
ffe2
0013
ffd6
fffb
0017
0003
fffc
ffe6
0026
ffd7
fff5
001c
ffff
ff61
0008
0011
0003
0001
ffec
ff4e
ffce
ffec
fffb
000c
ffe2
ff58
fff2
fff7
ffd5
001e
ff96
ffd8
0024
ff72
ffff
0005
ffa6
ffe5
ffea
ff7b
ffed
0006
fffe
ffda
0009
ff6d
0019
ffe8
0019
ffc2
fffb
ffc6
ffea
fff4
fff3
0004
fff4
fffd
ffe2
0011
ffe7
0003
ffbb
ff88
ffe8
ffff
fff2
ff7a
fff4
002f
ffd9
0016
001f
ffe8
ffda
ffc5
fff6
0037
ff79
000e
0011
ff7f
ffca
0029
fffd
ffb9
ffd1
fff1
001f
fffd
0001
000a
000e
ffff
0008
ffeb
fffe
0015
000b
0026
fffa
fffb
0009
fff6
0006
ffe1
fffa
ffe7
fff7
fffb
0002
fff5
fff2
ffbd
ffd5
ffe5
ff6a
fffb
fffa
fff0
ff57
fff1
ffb8
0047
fffe
0012
ff6d
ffe1
ff8f
fff5
fffb
fff2
0010
fff1
000e
fff9
0015
0047
0036
ffef
ff72
ffd2
0016
ffd8
0007
001e
ffe9
fff7
0008
ff82
fffa
fff5
ff97
fffb
ffe3
ff75
ffc6
0007
0014
ffd2
ffe2
ffdd
0004
0029
ffe0
0006
ffdd
fff1
ffa5
ffa3
000f
ff68
0019
ff88
ffeb
ffc8
001b
ffe5
fff7
fffd
ffce
002d
0000
ffcd
0021
ff6b
001f
ffd2
0011
0014
fff2
ffff
ffb2
0002
ffdd
ffef
ff8b
ffe0
ffde
fff3
fff6
ffd1
ffe3
fff3
0011
ff84
ffe8
ff98
ffcf
ff59
0018
ff94
ffee
000d
ffd5
002d
fff1
ff67
ffe5
ffdc
000c
ffe2
ffd4
fffd
fff3
ffde
0006
ffb1
000a
0036
0013
fffb
ff8b
fff3
fff2
0013
ff6a
002a
002c
ffd6
ff6c
0011
ffc8
0003
001f
0006
0001
ffec
ff4d
ffe9
ffff
ffe1
ff6c
fff9
fff8
ff74
ffd0
0002
ffe2
000a
0014
ffe9
ffd0
ffef
0022
000e
000d
fffa
000b
0022
0029
ffd1
fff7
0023
ffe1
fff4
0002
ff80
ff79
fffb
ffeb
fff3
ff67
fff5
ffef
ffdf
ffd6
ffd8
fff6
ff58
ffa6
0002
ff52
ffd3
0010
ff51
ffbf
ffe1
ff75
fffb
0060
0020
ffe2
ffdb
0014
ffff
ffcb
0006
ffe7
0007
fff3
0000
fff4
fffc
fffa
ffc1
ffed
fff4
0006
ffef
ffee
fffb
ffd5
001d
ffbb
fff2
ffcd
0005
ffcb
fff0
fffe
ffdd
ffe9
ffed
fff1
0002
001d
0004
ff80
0013
0009
0004
0008
fffd
fff3
0036
001d
ffe2
ffec
002d
ffd1
0031
001e
fff7
ffd2
0011
0001
ffe8
ffd5
0000
ffe0
002e
ff99
fff2
0000
fff3
000a
ffea
ffdf
0004
fff8
fff8
ffec
ffb2
ffdf
0010
ffef
0000
fff7
ffe9
ffd0
fff3
ffe8
0001
0024
fffe
fffc
000c
ffec
fffd
ffdf
0007
0020
fff3
ffeb
fff4
fffc
000f
ffe8
0016
ffff
0028
fff2
fff5
fff9
ff61
0029
ffd6
000d
001a
ff75
0009
0017
0029
0006
0009
ffd7
ffdf
0017
000a
0000
0003
001f
ffe2
0030
ffe9
ffec
0027
ffe8
ff63
ffc5
ffd5
ffbd
ff51
0006
ffc4
0003
0007
0008
fffe
000b
0021
0025
ffe9
ff78
002c
ffe8
0003
ffcf
ffd1
0013
0008
001e
fffa
000b
fff7
0017
0000
ffd9
0000
ffed
ff59
fffd
0004
ffff
001a
ffe7
ff60
0005
000a
0007
0022
0010
fff7
ffe6
0013
ffec
ffeb
ffea
000b
0010
ffd9
fff1
ffc5
fff7
0023
0001
0011
007f
fff8
ffd2
0025
fff5
0014
fff6
fff0
fff5
001d
0022
ffee
000e
ffe0
ffef
0054
ffe5
0019
001e
0008
0026
0068
fffe
001f
0040
003d
007f
0008
005c
006a
0008
001a
0000
0001
ffbb
fff8
fff8
0056
ffdd
ffb6
001b
ffc4
fff5
007f
0007
0017
0043
0017
ffd6
0079
000a
001f
005e
0044
fff5
000a
ffed
fff1
0004
ffe8
0045
0010
fffc
0009
0041
001e
fff6
0007
ffe2
fff8
fff3
0019
fff9
0016
0044
fff8
fff8
fffc
0025
002d
fff4
0017
ffff
ffd5
ffef
ffcc
0000
fff5
0006
fff3
0019
007f
ffe2
ffda
0028
006c
0032
fff7
fffd
ffcd
ffdb
fff8
fff9
ffe5
0006
0019
001c
fff8
fff8
001e
0005
0019
0069
fff8
ffe6
ffdc
0002
001f
fff7
001e
ffc7
fff6
0023
fff0
0002
001d
0023
fff8
fffe
fff0
000a
ffeb
000c
fff9
ffeb
0004
0005
ffa8
007f
0023
fff9
003e
ffaa
ffca
0026
0027
0000
ffcf
ffbc
0013
003c
fff7
007f
003a
ffde
fff7
fff2
ffd0
0003
fffc
fff9
0022
0009
fff7
0041
001f
fff7
ffe9
fff6
fff7
0005
000d
0017
fff4
001d
0000
0000
0002
ffee
0014
000a
0002
000f
0017
0006
0009
001d
ffca
0017
0018
0061
000c
fff7
0018
ffec
fffe
ffd6
ffeb
fffa
ffde
0078
ffef
ffdc
0021
fff7
002e
0036
fffa
fff9
000a
ffef
0008
0040
fff5
fff7
001c
fff7
fff6
ffe4
007f
ffe4
0010
0036
0079
ffc1
ffe9
0001
000d
fff9
0015
ffef
ffde
000d
ffbd
0019
007f
0012
fff7
fff1
fff9
fffa
ffcb
0038
fff7
001e
007f
fff5
003b
000a
0009
0025
0024
0029
fffd
0001
007f
ffee
ffdc
001b
fff4
002c
fffc
ffa7
ffe9
fff9
0015
0017
fff0
0002
ffd2
ffcd
ffdf
ffde
fff6
0008
001b
ffcc
fff0
ffed
007f
001d
0005
000a
ffd3
fffa
ffed
ffdf
007f
fffc
0016
0032
ffd2
ffd0
fff6
0013
fff2
000e
fff8
000d
fff8
fff2
fffd
fffd
0030
0009
fff5
ffdd
0008
007f
0048
0026
fff6
000d
fff2
000d
ff89
000e
001e
fff0
002d
fff6
000c
0002
ffed
fff9
ffd9
ffcc
000b
fff6
003f
001b
ffe8
ffce
fff3
000a
0068
fff7
0041
fff5
ffee
fff7
000d
0037
fff9
0006
000a
0013
0000
0009
0007
0009
ffca
fffa
fff3
ffdb
0067
ffe4
0010
001a
ffd7
0079
0007
fffe
0008
ffd6
fff7
fff5
ffc5
ffd6
ff9d
fff8
fff1
ffde
0013
0010
0000
005d
fff9
fff4
ffdb
fff8
001e
fffa
fff5
000b
000d
fff5
0055
fffb
0013
0025
007f
fff9
ffc9
0026
000e
fffe
004a
0050
fff2
fffb
0007
0035
0016
ffe0
fff5
0055
ffd6
000e
0003
fffd
000c
0000
000b
001b
0012
